{
  "version": "1.0",
  "truncation": null,
  "padding": null,
  "added_tokens": [
    {
      "id": 0,
      "content": "<|endoftext|>",
      "single_word": false,
      "lstrip": false,
      "rstrip": false,
      "normalized": false,
      "special": true
    }
  ],
  "normalizer": null,
  "pre_tokenizer": {
    "type": "ByteLevel",
    "add_prefix_space": false,
    "trim_offsets": true,
    "use_regex": true
  },
  "post_processor": {
    "type": "ByteLevel",
    "add_prefix_space": true,
    "trim_offsets": false,
    "use_regex": true
  },
  "decoder": {
    "type": "ByteLevel",
    "add_prefix_space": true,
    "trim_offsets": true,
    "use_regex": true
  },
  "model": {
    "type": "BPE",
    "dropout": null,
    "unk_token": null,
    "continuing_subword_prefix": null,
    "end_of_word_suffix": null,
    "fuse_unk": false,
    "byte_fallback": false,
    "ignore_merges": false,
    "vocab": {
      "<|endoftext|>": 0,
      "!": 1,
      "\"": 2,
      "#": 3,
      "$": 4,
      "%": 5,
      "&": 6,
      "'": 7,
      "(": 8,
      ")": 9,
      "*": 10,
      "+": 11,
      ",": 12,
      "-": 13,
      ".": 14,
      "/": 15,
      "0": 16,
      "1": 17,
      "2": 18,
      "3": 19,
      "4": 20,
      "5": 21,
      "6": 22,
      "7": 23,
      "8": 24,
      "9": 25,
      ":": 26,
      ";": 27,
      "<": 28,
      "=": 29,
      ">": 30,
      "?": 31,
      "@": 32,
      "A": 33,
      "B": 34,
      "C": 35,
      "D": 36,
      "E": 37,
      "F": 38,
      "G": 39,
      "H": 40,
      "I": 41,
      "J": 42,
      "K": 43,
      "L": 44,
      "M": 45,
      "N": 46,
      "O": 47,
      "P": 48,
      "Q": 49,
      "R": 50,
      "S": 51,
      "T": 52,
      "U": 53,
      "V": 54,
      "W": 55,
      "X": 56,
      "Y": 57,
      "Z": 58,
      "[": 59,
      "\\": 60,
      "]": 61,
      "^": 62,
      "_": 63,
      "`": 64,
      "a": 65,
      "b": 66,
      "c": 67,
      "d": 68,
      "e": 69,
      "f": 70,
      "g": 71,
      "h": 72,
      "i": 73,
      "j": 74,
      "k": 75,
      "l": 76,
      "m": 77,
      "n": 78,
      "o": 79,
      "p": 80,
      "q": 81,
      "r": 82,
      "s": 83,
      "t": 84,
      "u": 85,
      "v": 86,
      "w": 87,
      "x": 88,
      "y": 89,
      "z": 90,
      "{": 91,
      "|": 92,
      "}": 93,
      "~": 94,
      "¡": 95,
      "¢": 96,
      "£": 97,
      "¤": 98,
      "¥": 99,
      "¦": 100,
      "§": 101,
      "¨": 102,
      "©": 103,
      "ª": 104,
      "«": 105,
      "¬": 106,
      "®": 107,
      "¯": 108,
      "°": 109,
      "±": 110,
      "²": 111,
      "³": 112,
      "´": 113,
      "µ": 114,
      "¶": 115,
      "·": 116,
      "¸": 117,
      "¹": 118,
      "º": 119,
      "»": 120,
      "¼": 121,
      "½": 122,
      "¾": 123,
      "¿": 124,
      "À": 125,
      "Á": 126,
      "Â": 127,
      "Ã": 128,
      "Ä": 129,
      "Å": 130,
      "Æ": 131,
      "Ç": 132,
      "È": 133,
      "É": 134,
      "Ê": 135,
      "Ë": 136,
      "Ì": 137,
      "Í": 138,
      "Î": 139,
      "Ï": 140,
      "Ð": 141,
      "Ñ": 142,
      "Ò": 143,
      "Ó": 144,
      "Ô": 145,
      "Õ": 146,
      "Ö": 147,
      "×": 148,
      "Ø": 149,
      "Ù": 150,
      "Ú": 151,
      "Û": 152,
      "Ü": 153,
      "Ý": 154,
      "Þ": 155,
      "ß": 156,
      "à": 157,
      "á": 158,
      "â": 159,
      "ã": 160,
      "ä": 161,
      "å": 162,
      "æ": 163,
      "ç": 164,
      "è": 165,
      "é": 166,
      "ê": 167,
      "ë": 168,
      "ì": 169,
      "í": 170,
      "î": 171,
      "ï": 172,
      "ð": 173,
      "ñ": 174,
      "ò": 175,
      "ó": 176,
      "ô": 177,
      "õ": 178,
      "ö": 179,
      "÷": 180,
      "ø": 181,
      "ù": 182,
      "ú": 183,
      "û": 184,
      "ü": 185,
      "ý": 186,
      "þ": 187,
      "ÿ": 188,
      "Ā": 189,
      "ā": 190,
      "Ă": 191,
      "ă": 192,
      "Ą": 193,
      "ą": 194,
      "Ć": 195,
      "ć": 196,
      "Ĉ": 197,
      "ĉ": 198,
      "Ċ": 199,
      "ċ": 200,
      "Č": 201,
      "č": 202,
      "Ď": 203,
      "ď": 204,
      "Đ": 205,
      "đ": 206,
      "Ē": 207,
      "ē": 208,
      "Ĕ": 209,
      "ĕ": 210,
      "Ė": 211,
      "ė": 212,
      "Ę": 213,
      "ę": 214,
      "Ě": 215,
      "ě": 216,
      "Ĝ": 217,
      "ĝ": 218,
      "Ğ": 219,
      "ğ": 220,
      "Ġ": 221,
      "ġ": 222,
      "Ģ": 223,
      "ģ": 224,
      "Ĥ": 225,
      "ĥ": 226,
      "Ħ": 227,
      "ħ": 228,
      "Ĩ": 229,
      "ĩ": 230,
      "Ī": 231,
      "ī": 232,
      "Ĭ": 233,
      "ĭ": 234,
      "Į": 235,
      "į": 236,
      "İ": 237,
      "ı": 238,
      "Ĳ": 239,
      "ĳ": 240,
      "Ĵ": 241,
      "ĵ": 242,
      "Ķ": 243,
      "ķ": 244,
      "ĸ": 245,
      "Ĺ": 246,
      "ĺ": 247,
      "Ļ": 248,
      "ļ": 249,
      "Ľ": 250,
      "ľ": 251,
      "Ŀ": 252,
      "ŀ": 253,
      "Ł": 254,
      "ł": 255,
      "Ń": 256,
      "he": 257,
      "Ġt": 258,
      "Ġa": 259,
      "Ġs": 260,
      "Ġw": 261,
      "nd": 262,
      "Ġthe": 263,
      "ed": 264,
      "Ġand": 265,
      "Ġto": 266,
      "Ġb": 267,
      "in": 268,
      "Ġh": 269,
      "Ġwa": 270,
      "re": 271,
      "Ġf": 272,
      "ou": 273,
      "it": 274,
      "Ġl": 275,
      "Ġc": 276,
      "Ġd": 277,
      "er": 278,
      "Ġhe": 279,
      "Ġm": 280,
      "Ġp": 281,
      "Ġwas": 282,
      "ĠT": 283,
      "om": 284,
      "Ġo": 285,
      "ay": 286,
      "is": 287,
      "ar": 288,
      "il": 289,
      "ing": 290,
      "Ġg": 291,
      "id": 292,
      "at": 293,
      "en": 294,
      "Ġn": 295,
      "Ġsa": 296,
      "Ġha": 297,
      "ĠS": 298,
      "ĠThe": 299,
      "an": 300,
      "im": 301,
      "or": 302,
      "on": 303,
      "Ġit": 304,
      "Ġth": 305,
      "ll": 306,
      "le": 307,
      "ĠH": 308,
      "Ġher": 309,
      "et": 310,
      "ot": 311,
      "ir": 312,
      "ĠShe": 313,
      "ĠHe": 314,
      "es": 315,
      "Ġin": 316,
      "ver": 317,
      "ow": 318,
      "ut": 319,
      "ĠThey": 320,
      "ck": 321,
      "Ġy": 322,
      "Ġe": 323,
      "Ġu": 324,
      "ily": 325,
      "ld": 326,
      "oo": 327,
      "Ġsaid": 328,
      "ig": 329,
      "Ġ\"": 330,
      "am": 331,
      "Ġr": 332,
      "Ġbe": 333,
      "ĠI": 334,
      "Ġst": 335,
      "Lily": 336,
      "ith": 337,
      "ke": 338,
      "ce": 339,
      "pp": 340,
      "ve": 341,
      "Ġwith": 342,
      "Ġshe": 343,
      "On": 344,
      "Ġon": 345,
      "Ġyou": 346,
      "ri": 347,
      "ked": 348,
      "Ġpl": 349,
      "Ġof": 350,
      "Ġhis": 351,
      "nt": 352,
      "Ġso": 353,
      "ad": 354,
      "Ġday": 355,
      "very": 356,
      "Ġthat": 357,
      "ĠLily": 358,
      "Ġplay": 359,
      "Ġup": 360,
      "Ġhad": 361,
      "Ġwe": 362,
      "Ġthey": 363,
      "Ġmom": 364,
      "st": 365,
      "ĠB": 366,
      "el": 367,
      "Ġfor": 368,
      "un": 369,
      "my": 370,
      "'s": 371,
      "ould": 372,
      "Ġli": 373,
      "The": 374,
      "Ġhapp": 375,
      "ent": 376,
      "ch": 377,
      "Ġwant": 378,
      "itt": 379,
      "her": 380,
      "Ġsh": 381,
      "out": 382,
      "Ġdo": 383,
      "end": 384,
      "Ġnot": 385,
      "all": 386,
      "ome": 387,
      "Ġvery": 388,
      "se": 389,
      "ound": 390,
      "ly": 391,
      "ime": 392,
      "Ġk": 393,
      "ittle": 394,
      "Ġwh": 395,
      "Ġtime": 396,
      "Ġlittle": 397,
      "Ġthere": 398,
      "Ġbig": 399,
      "Ġne": 400,
      "Ġis": 401,
      "Ġhappy": 402,
      "ht": 403,
      "al": 404,
      "ĠM": 405,
      "Ġsm": 406,
      "Ġre": 407,
      "riend": 408,
      "Ġfriend": 409,
      "ĠIt": 410,
      "Ġsaw": 411,
      "Ġbut": 412,
      ".\"": 413,
      "ra": 414,
      "Ġan": 415,
      "ĠĊ": 416,
      "ry": 417,
      "Ġas": 418,
      "ack": 419,
      "One": 420,
      "ide": 421,
      "ake": 422,
      "ved": 423,
      "!\"": 424,
      "ug": 425,
      "'t": 426,
      "ter": 427,
      "Ġlo": 428,
      "Ġloo": 429,
      "Once": 430,
      "Ġwere": 431,
      "ĠTim": 432,
      "Ġse": 433,
      "ore": 434,
      "Ġtoo": 435,
      "Ġbo": 436,
      "Ġhim": 437,
      "Ġgo": 438,
      "Ġare": 439,
      "ec": 440,
      "ill": 441,
      "Ġwanted": 442,
      "Ġupon": 443,
      "Ġthem": 444,
      "irl": 445,
      "ard": 446,
      "Ġj": 447,
      "Ġgirl": 448,
      "Ġout": 449,
      "Ġat": 450,
      "Ġtheir": 451,
      "ind": 452,
      "ur": 453,
      "fu": 454,
      "way": 455,
      "Ġdid": 456,
      "ĠA": 457,
      "Ġsp": 458,
      "hen": 459,
      "Ġsmil": 460,
      "Ġcould": 461,
      "Ġhave": 462,
      "ain": 463,
      "Ġwent": 464,
      "Ġnam": 465,
      "ĠBen": 466,
      "hed": 467,
      "art": 468,
      "Ġcan": 469,
      "lp": 470,
      "rom": 471,
      "ic": 472,
      "Ġex": 473,
      "round": 474,
      "Ġfriends": 475,
      "?\"": 476,
      "Ġhelp": 477,
      "ood": 478,
      "ful": 479,
      "Ġkn": 480,
      "ĠJ": 481,
      "Ġall": 482,
      "hing": 483,
      "ight": 484,
      "um": 485,
      "ark": 486,
      "Ġfun": 487,
      "Ġsay": 488,
      "Ġback": 489,
      "one": 490,
      "You": 491,
      "Ġnamed": 492,
      "are": 493,
      "Ġcl": 494,
      "ĠTom": 495,
      "Ġno": 496,
      "Ġle": 497,
      "Ġloved": 498,
      "op": 499,
      "elt": 500,
      "oug": 501,
      "ĠOne": 502,
      "Ġsc": 503,
      "Ġtoy": 504,
      "Ġfelt": 505,
      "ĠTimmy": 506,
      "Ġsmiled": 507,
      "Ġal": 508,
      "Ġasked": 509,
      "Ġlike": 510,
      "side": 511,
      "ick": 512,
      "Ġlooked": 513,
      "Ġfe": 514,
      "Ġsee": 515,
      "Ġman": 516,
      "ame": 517,
      "Ġro": 518,
      "Ġbir": 519,
      "get": 520,
      "Ġme": 521,
      "ĠW": 522,
      "Ġaround": 523,
      "Ġsome": 524,
      "ure": 525,
      "Ġbr": 526,
      "omet": 527,
      "Ġboy": 528,
      "Ġbird": 529,
      "ong": 530,
      "ice": 531,
      "Ġwould": 532,
      "as": 533,
      "Ġstart": 534,
      "Ġwor": 535,
      "Ġtre": 536,
      ",\"": 537,
      "gether": 538,
      "dd": 539,
      "Ġag": 540,
      "ings": 541,
      "ade": 542,
      "Ġsomet": 543,
      "Ġmake": 544,
      "ag": 545,
      "Ġfa": 546,
      "ĠBut": 547,
      "own": 548,
      "Ġwhat": 549,
      "ĠYou": 550,
      "king": 551,
      "Ġtogether": 552,
      "Ġaway": 553,
      "Ġsays": 554,
      "Ġran": 555,
      "oud": 556,
      "Ġstarted": 557,
      "ared": 558,
      "Ġpark": 559,
      "Ġmade": 560,
      "Ã¢": 561,
      "âĤ": 562,
      "âĤ¬": 563,
      "if": 564,
      "ie": 565,
      "Ġco": 566,
      "Ġsad": 567,
      "Ġput": 568,
      "Ġot": 569,
      "Ġsomething": 570,
      "Ġnew": 571,
      "Ġcar": 572,
      "ited": 573,
      "Ġother": 574,
      "ell": 575,
      "Ġpr": 576,
      "Ġfrom": 577,
      "Ġagain": 578,
      "ble": 579,
      "Ġhug": 580,
      "Ġgood": 581,
      "Ġhome": 582,
      "ook": 583,
      "Ġla": 584,
      "Ġfl": 585,
      "Ġmu": 586,
      "Ġexc": 587,
      "Ġwhen": 588,
      "ĠL": 589,
      "ried": 590,
      "Ġfound": 591,
      "est": 592,
      "ue": 593,
      "Ġwho": 594,
      "ss": 595,
      "ep": 596,
      "ach": 597,
      "ought": 598,
      "hat": 599,
      "pped": 600,
      "Ġplaying": 601,
      "Ġthen": 602,
      "Ġch": 603,
      "Ġdec": 604,
      "Ġsw": 605,
      "Ġwal": 606,
      "Ġget": 607,
      "ous": 608,
      "uck": 609,
      "Ġthings": 610,
      "nn": 611,
      "pl": 612,
      "Ġbl": 613,
      "Ġgot": 614,
      "ally": 615,
      "ro": 616,
      "Ġliked": 617,
      "Ġdog": 618,
      "ave": 619,
      "ĠE": 620,
      "Ġexcited": 621,
      "Ġevery": 622,
      "ax": 623,
      "Ġyour": 624,
      "Ġcame": 625,
      "Ġbec": 626,
      "Ġdecid": 627,
      "Ġdown": 628,
      "Ġdecided": 629,
      "Ġfind": 630,
      "ouse": 631,
      "Ġcare": 632,
      "Ġdad": 633,
      "ust": 634,
      "ny": 635,
      "ĠD": 636,
      "ist": 637,
      "Ġscared": 638,
      "Ġv": 639,
      "ara": 640,
      "Ġfeel": 641,
      "They": 642,
      "Ġone": 643,
      "Ġab": 644,
      "ĠMom": 645,
      "Ġthan": 646,
      "Ġtree": 647,
      "Ġta": 648,
      "Ġmy": 649,
      "nna": 650,
      "Ġwill": 651,
      "qu": 652,
      "our": 653,
      "udd": 654,
      "Ġtoys": 655,
      "arn": 656,
      "us": 657,
      "ways": 658,
      "Ġball": 659,
      "Ġtook": 660,
      "ĠF": 661,
      "ers": 662,
      "Ġdidn": 663,
      "Ġpo": 664,
      "Ġabout": 665,
      "Ġgra": 666,
      "Ġalways": 667,
      "ess": 668,
      "Ġlook": 669,
      "nder": 670,
      "Ġthought": 671,
      "ant": 672,
      "ite": 673,
      "Ġlot": 674,
      "Ġkne": 675,
      "Ġke": 676,
      "fe": 677,
      "Ġmommy": 678,
      "ise": 679,
      "Ġoutside": 680,
      "ap": 681,
      "ged": 682,
      "Ġmore": 683,
      "ret": 684,
      "Ġknow": 685,
      "Ġlearn": 686,
      "bb": 687,
      "ched": 688,
      "Ġho": 689,
      "ened": 690,
      "Ġcat": 691,
      "Ġint": 692,
      "ĠMax": 693,
      "Ġlaug": 694,
      "eci": 695,
      "ĠSam": 696,
      "Ġtake": 697,
      "Ġold": 698,
      "ia": 699,
      "Ġsor": 700,
      "fter": 701,
      "Ġhow": 702,
      "Ġany": 703,
      "Ġknew": 704,
      "ma": 705,
      "Ġpe": 706,
      "ive": 707,
      "Ġtr": 708,
      "ecial": 709,
      "Ġspecial": 710,
      "udden": 711,
      "au": 712,
      "Ġshow": 713,
      "Ġsl": 714,
      "Ġhouse": 715,
      "Ġsorry": 716,
      "uddenly": 717,
      "But": 718,
      "Ġmuch": 719,
      "Ġrun": 720,
      "and": 721,
      "ish": 722,
      "ank": 723,
      "ven": 724,
      "Ġsun": 725,
      "Ġtold": 726,
      "Ġor": 727,
      "Ġmo": 728,
      "Ġtw": 729,
      "Ġop": 730,
      "ink": 731,
      "Ġplayed": 732,
      "Ġhand": 733,
      "Ġsk": 734,
      "Ġinto": 735,
      "Ġwater": 736,
      "Ġtried": 737,
      "ty": 738,
      "Ġgave": 739,
      "Ġclo": 740,
      "Ġproud": 741,
      "Ġeat": 742,
      "Ġinside": 743,
      "ĠWe": 744,
      "ause": 745,
      "ate": 746,
      "other": 747,
      "Ġroom": 748,
      "ump": 749,
      "Ġif": 750,
      "Ġen": 751,
      "Ġover": 752,
      "Tom": 753,
      "ge": 754,
      "ob": 755,
      "Ġcouldn": 756,
      "Ġheard": 757,
      "Ġnever": 758,
      "etter": 759,
      "Ġpick": 760,
      "Ġgre": 761,
      "ĠAnna": 762,
      "Ġhugged": 763,
      "ace": 764,
      "ak": 765,
      "Ġstr": 766,
      "Ġpret": 767,
      "dy": 768,
      "ion": 769,
      "Ġwat": 770,
      "Ġexpl": 771,
      "Ġbox": 772,
      "Ġeach": 773,
      "Ġbecause": 774,
      "Ġsmall": 775,
      "Ġthis": 776,
      "Ġneed": 777,
      "Ġjust": 778,
      "ĠEvery": 779,
      "ĠSara": 780,
      "Mom": 781,
      "Ġbu": 782,
      "Ġmany": 783,
      "Ġnice": 784,
      "ile": 785,
      "here": 786,
      "oth": 787,
      "Ġfo": 788,
      "Ġcom": 789,
      "Ġlong": 790,
      "uc": 791,
      "Ġqu": 792,
      "'m": 793,
      "urt": 794,
      "sed": 795,
      "imal": 796,
      "Ġanimal": 797,
      "iz": 798,
      "by": 799,
      "gry": 800,
      "ving": 801,
      "Ġsn": 802,
      "Ġbear": 803,
      "ine": 804,
      "Ġoff": 805,
      "Ġtry": 806,
      "Ġlearned": 807,
      "Ġlove": 808,
      "ort": 809,
      "ild": 810,
      "ough": 811,
      "Ġbetter": 812,
      "ft": 813,
      "Ġunt": 814,
      "sel": 815,
      "ĠJack": 816,
      "Ġflow": 817,
      "Yes": 818,
      "ĠMia": 819,
      "Ġcall": 820,
      "Ġuntil": 821,
      "Ġbest": 822,
      "ĠC": 823,
      "Ġkind": 824,
      "em": 825,
      "ĠAnd": 826,
      "Ġcle": 827,
      "Th": 828,
      "Ġdre": 829,
      "ars": 830,
      "Ġim": 831,
      "Ġpu": 832,
      "Ġdon": 833,
      "Ġend": 834,
      "urn": 835,
      "ĠJo": 836,
      "aut": 837,
      "He": 838,
      "ady": 839,
      "Ġcareful": 840,
      "ves": 841,
      "Ġfi": 842,
      "Ġgr": 843,
      "ber": 844,
      "ĠHer": 845,
      "lly": 846,
      "Ġad": 847,
      "ĠSo": 848,
      "Ġthanked": 849,
      "Ġche": 850,
      "Ġeven": 851,
      "Ġbra": 852,
      "Ġlaughed": 853,
      "vent": 854,
      "Ġbeaut": 855,
      "Ġsky": 856,
      "Ġjump": 857,
      "Ġfast": 858,
      "lew": 859,
      "urp": 860,
      "Ġte": 861,
      "Ġgard": 862,
      "Ġgarden": 863,
      "iny": 864,
      "pt": 865,
      "oy": 866,
      "Ġhurt": 867,
      "Ġby": 868,
      "Ġlist": 869,
      "Ġloud": 870,
      "Ġgl": 871,
      "self": 872,
      "ase": 873,
      "Ġstill": 874,
      "Ġbeauti": 875,
      "Ġlots": 876,
      "It": 877,
      "Ġbeautiful": 878,
      "Ġanimals": 879,
      "Ġcome": 880,
      "wn": 881,
      "Ġhard": 882,
      "Ġlived": 883,
      "Ġway": 884,
      "ĠFrom": 885,
      "rm": 886,
      "Ġunder": 887,
      "ies": 888,
      "hes": 889,
      "ct": 890,
      "Ġfam": 891,
      "Tim": 892,
      "Ġlet": 893,
      "ĠHis": 894,
      "be": 895,
      "Ġwo": 896,
      "ool": 897,
      "Ġcol": 898,
      "Ġra": 899,
      "Ġcu": 900,
      "ock": 901,
      "ect": 902,
      "Åĵ": 903,
      "ucy": 904,
      "Ġboth": 905,
      "igh": 906,
      "ning": 907,
      "kay": 908,
      "ĠThen": 909,
      "Ġits": 910,
      "Ġsafe": 911,
      "Ġdan": 912,
      "Ġrem": 913,
      "Ġbad": 914,
      "Ġflew": 915,
      "Ġbrave": 916,
      "Ġbook": 917,
      "ane": 918,
      "Ġstay": 919,
      "Ġstor": 920,
      "Ġdoll": 921,
      "ast": 922,
      "Ġimp": 923,
      "Ġcalled": 924,
      "ople": 925,
      "Ġred": 926,
      "Ġshould": 927,
      "Ġfly": 928,
      "Ġtwo": 929,
      "ree": 930,
      "ĠÃ¢": 931,
      "Ġangry": 932,
      "When": 933,
      "ished": 934,
      "Ġwalked": 935,
      "Ġdra": 936,
      "Ġfin": 937,
      "Let": 938,
      "Ġpic": 939,
      "Ġclean": 940,
      "dded": 941,
      "age": 942,
      "Ġrock": 943,
      "Ġfamily": 944,
      "Ġshare": 945,
      "ip": 946,
      "Ġpeople": 947,
      "urpr": 948,
      "xt": 949,
      "led": 950,
      "ĠP": 951,
      "Ġsurpr": 952,
      "hn": 953,
      "illy": 954,
      "Ġsoon": 955,
      "No": 956,
      "Ġpretty": 957,
      "ĠWhen": 958,
      "Ġshiny": 959,
      "Ben": 960,
      "fore": 961,
      "Ġwind": 962,
      "Ġground": 963,
      "Ġkept": 964,
      "ummy": 965,
      "Ġfore": 966,
      "oon": 967,
      "Ġgoing": 968,
      "Ġnow": 969,
      "Ġsto": 970,
      "Ġdoor": 971,
      "Ġcon": 972,
      "Ġnoise": 973,
      "eet": 974,
      "ised": 975,
      "ary": 976,
      "Ġkeep": 977,
      "Ġnodded": 978,
      "Ġey": 979,
      "Ġide": 980,
      "Ġopened": 981,
      "ture": 982,
      "ied": 983,
      "What": 984,
      "Ġadvent": 985,
      "Ġfar": 986,
      "Ġturn": 987,
      "Ġexplore": 988,
      "Ġtruck": 989,
      "Ġcry": 990,
      "âĤ¬â": 991,
      "Ġcolor": 992,
      "Ġbefore": 993,
      "ĠLucy": 994,
      "ff": 995,
      "imb": 996,
      "Ġwhile": 997,
      "Ġclimb": 998,
      "Ġfr": 999,
      "aybe": 1000,
      "That": 1001,
      "Ġbed": 1002,
      "Ġidea": 1003,
      "Ġcre": 1004,
      "thing": 1005,
      "Ġpicked": 1006,
      "Ġreal": 1007,
      "so": 1008,
      "Thank": 1009,
      "Ġwr": 1010,
      "Ġthr": 1011,
      "Ġfeeling": 1012,
      "Ġalso": 1013,
      "Ġnext": 1014,
      "hy": 1015,
      "les": 1016,
      "Ġpicture": 1017,
      "ger": 1018,
      "Ġhas": 1019,
      "kes": 1020,
      "Ġun": 1021,
      "ĠG": 1022,
      "uch": 1023,
      "ĠSue": 1024,
      "Ġtra": 1025,
      "Ġsmile": 1026,
      "Ħ¢": 1027,
      "Ġwait": 1028,
      "âĤ¬âĦ¢": 1029,
      "ting": 1030,
      "Ġtow": 1031,
      "iced": 1032,
      "Ġwalking": 1033,
      "Ġjo": 1034,
      "ious": 1035,
      "joy": 1036,
      "Ġma": 1037,
      "ember": 1038,
      "Ġlisten": 1039,
      "Ġclos": 1040,
      "Ġstopped": 1041,
      "Ġadventure": 1042,
      "ted": 1043,
      "Ġafter": 1044,
      "Ġblue": 1045,
      "Ġwalk": 1046,
      "Ġslide": 1047,
      "Ġeyes": 1048,
      "Ġbeing": 1049,
      "ught": 1050,
      "Ġfood": 1051,
      "Ġhands": 1052,
      "Ġwatch": 1053,
      "Ġgreat": 1054,
      "ac": 1055,
      "Ġstrong": 1056,
      "Ġremember": 1057,
      "Ġfish": 1058,
      "Ġlooking": 1059,
      "Ġdif": 1060,
      "Ġrepl": 1061,
      "Ġthink": 1062,
      "Ġdel": 1063,
      "She": 1064,
      "Ġask": 1065,
      "Ġenjoy": 1066,
      "Ġgive": 1067,
      "Ġever": 1068,
      "maz": 1069,
      "ĠSuddenly": 1070,
      "Ġflowers": 1071,
      "able": 1072,
      "Ġamaz": 1073,
      "Ġbre": 1074,
      "Ġus": 1075,
      "llow": 1076,
      "Ġbro": 1077,
      "Ġtal": 1078,
      "ĠBob": 1079,
      "Ġdis": 1080,
      "ĠSp": 1081,
      "Ġsound": 1082,
      "Ġnoticed": 1083,
      "Ġvo": 1084,
      "irst": 1085,
      "Ġokay": 1086,
      "Suddenly": 1087,
      "Ġapp": 1088,
      "Ġshout": 1089,
      "ĠDad": 1090,
      "Ġrain": 1091,
      "Ġshowed": 1092,
      "ĠR": 1093,
      "Ġnear": 1094,
      "Ġquick": 1095,
      "Ġwonder": 1096,
      "Ġforest": 1097,
      "Ġown": 1098,
      "ized": 1099,
      "co": 1100,
      "Ġboat": 1101,
      "bbit": 1102,
      "Ġbecame": 1103,
      "Ġright": 1104,
      "Ġmean": 1105,
      "Ġwork": 1106,
      "bye": 1107,
      "We": 1108,
      "Ġstick": 1109,
      "Ġreplied": 1110,
      "gan": 1111,
      "Ġfollow": 1112,
      "Ġac": 1113,
      "Ġhead": 1114,
      "lease": 1115,
      "ĠN": 1116,
      "Ġhigh": 1117,
      "Ġimport": 1118,
      "Ġyell": 1119,
      "Ġeveryone": 1120,
      "Ġuse": 1121,
      "Ġour": 1122,
      "Ġplace": 1123,
      "Look": 1124,
      "Ġam": 1125,
      "Ġmor": 1126,
      "ath": 1127,
      "Ġimportant": 1128,
      "Ġrabbit": 1129,
      "Ġde": 1130,
      "ange": 1131,
      "Ġcuri": 1132,
      "bbed": 1133,
      "day": 1134,
      "Ġblock": 1135,
      "Ġwhere": 1136,
      "Ġwatched": 1137,
      "fere": 1138,
      "ndma": 1139,
      "Ġhop": 1140,
      "Ġbright": 1141,
      "Ġdiffere": 1142,
      "Ġcloser": 1143,
      "aught": 1144,
      "Ġar": 1145,
      "So": 1146,
      "ila": 1147,
      "Ġgoodbye": 1148,
      "Ġcurious": 1149,
      "ered": 1150,
      "Ġmag": 1151,
      "more": 1152,
      "Ġanymore": 1153,
      "Ġdoes": 1154,
      "leep": 1155,
      "Ġface": 1156,
      "Ġquickly": 1157,
      "Ġopen": 1158,
      "Ġbeen": 1159,
      "Ġdress": 1160,
      "ng": 1161,
      "Ġpain": 1162,
      "itc": 1163,
      "ĠSpot": 1164,
      "Ġwarm": 1165,
      "Ġvoice": 1166,
      "Ġcake": 1167,
      "Sara": 1168,
      "Anna": 1169,
      "Ġye": 1170,
      "Ġstore": 1171,
      "Can": 1172,
      "Ġtell": 1173,
      "Ġsure": 1174,
      "Ġbel": 1175,
      "Ġdifferent": 1176,
      "Ġforg": 1177,
      "Her": 1178,
      "Ġcook": 1179,
      "Ġchild": 1180,
      "ĠTh": 1181,
      "Ġstory": 1182,
      "Ġcou": 1183,
      "ired": 1184,
      "ĠMommy": 1185,
      "Ġfire": 1186,
      "Ġfirst": 1187,
      "Ġsweet": 1188,
      "ached": 1189,
      "Ġhelped": 1190,
      "ull": 1191,
      "Ġsees": 1192,
      "Ġz": 1193,
      "Ġfell": 1194,
      "uff": 1195,
      "Ġfav": 1196,
      "imes": 1197,
      "Ġbutter": 1198,
      "Ġpull": 1199,
      "Ġper": 1200,
      "Ġnight": 1201,
      "Ġru": 1202,
      "Ġlea": 1203,
      "Ġkitc": 1204,
      "Ġkitchen": 1205,
      "Ġhere": 1206,
      "Ġbus": 1207,
      "Ġdraw": 1208,
      "Ġcont": 1209,
      "Jo": 1210,
      "Ġbit": 1211,
      "Ġthree": 1212,
      "isy": 1213,
      "ĠDo": 1214,
      "Ġkid": 1215,
      "iss": 1216,
      "Ġhappened": 1217,
      "Ġjumped": 1218,
      "Ġbrother": 1219,
      "After": 1220,
      "Ġsing": 1221,
      "Ġgame": 1222,
      "Ġbeh": 1223,
      "Ġflo": 1224,
      "ins": 1225,
      "Ġbirds": 1226,
      "ppy": 1227,
      "Ġsoft": 1228,
      "Ġprin": 1229,
      "Ġdr": 1230,
      "ner": 1231,
      "Ġstop": 1232,
      "Ġonly": 1233,
      "unny": 1234,
      "Ġglad": 1235,
      "zy": 1236,
      "ĠJane": 1237,
      "Ġsand": 1238,
      "ĠLet": 1239,
      "Ġcra": 1240,
      "akes": 1241,
      "Ġmess": 1242,
      "'re": 1243,
      "Ġgrass": 1244,
      "Ġmon": 1245,
      "Ġgrabbed": 1246,
      "Ġhat": 1247,
      "Ġworld": 1248,
      "Ġreached": 1249,
      "Ġrest": 1250,
      "Ġhaving": 1251,
      "Ġcut": 1252,
      "Ġshouted": 1253,
      "Ġcr": 1254,
      "Ġlady": 1255,
      "ĠAs": 1256,
      "Wow": 1257,
      "Ġyummy": 1258,
      "Ġate": 1259,
      "nts": 1260,
      "Ġname": 1261,
      "Ġthrough": 1262,
      "Ġready": 1263,
      "Ġfro": 1264,
      "Ġsqu": 1265,
      "ater": 1266,
      "Ġworry": 1267,
      "Ġblocks": 1268,
      "Ġpap": 1269,
      "Ġdone": 1270,
      "ĠCan": 1271,
      "olly": 1272,
      "Ġcried": 1273,
      "Ġpond": 1274,
      "Ġflower": 1275,
      "ĠEveryone": 1276,
      "Ġthing": 1277,
      "ass": 1278,
      "Ġrealized": 1279,
      "ient": 1280,
      "Ġfunny": 1281,
      "Ġfavor": 1282,
      "Ġmagic": 1283,
      "Ġtired": 1284,
      "As": 1285,
      "Ġreally": 1286,
      "Ġcatch": 1287,
      "Ġless": 1288,
      "Ġfavorite": 1289,
      "Ġtri": 1290,
      "ather": 1291,
      "air": 1292,
      "Ġtast": 1293,
      "Ġwaved": 1294,
      "Ġbegan": 1295,
      "Ġmum": 1296,
      "where": 1297,
      "Ġgreen": 1298,
      "Ġunderst": 1299,
      "Ġpare": 1300,
      "Ġlooks": 1301,
      "Ġkids": 1302,
      "ken": 1303,
      "Ġpus": 1304,
      "Mommy": 1305,
      "Ġdin": 1306,
      "fully": 1307,
      "Ġbutterf": 1308,
      "Ġseen": 1309,
      "Ġpretend": 1310,
      "ĠJohn": 1311,
      "th": 1312,
      "ards": 1313,
      "Ġfix": 1314,
      "Ġcoming": 1315,
      "Ġhair": 1316,
      "Ġfill": 1317,
      "Don": 1318,
      "Ġbunny": 1319,
      "Ġanother": 1320,
      "aisy": 1321,
      "eddy": 1322,
      "Ġmaking": 1323,
      "mer": 1324,
      "Ġhimself": 1325,
      "Ġpart": 1326,
      "sh": 1327,
      "Ġswing": 1328,
      "Ġhole": 1329,
      "ign": 1330,
      "Ġread": 1331,
      "Ġtouch": 1332,
      "ĠThat": 1333,
      "Ġbag": 1334,
      "Ġcool": 1335,
      "Ġused": 1336,
      "Ġyellow": 1337,
      "Ġfrog": 1338,
      "ĠSarah": 1339,
      "Timmy": 1340,
      "Ġba": 1341,
      "ster": 1342,
      "Ġcold": 1343,
      "Ġprom": 1344,
      "Ġbehind": 1345,
      "Ġsmell": 1346,
      "ĠJoe": 1347,
      "Ġsleep": 1348,
      "ely": 1349,
      "Ġswim": 1350,
      "bo": 1351,
      "Ġdro": 1352,
      "Ġworked": 1353,
      "Ġtrees": 1354,
      "Ġsurprise": 1355,
      "Ġste": 1356,
      "Ġrunning": 1357,
      "ike": 1358,
      "Ġlight": 1359,
      "Ġpaper": 1360,
      "Ġwhy": 1361,
      "Ġdelic": 1362,
      "Ġparents": 1363,
      "Ġgi": 1364,
      "ued": 1365,
      "Ġhopped": 1366,
      "Ġwood": 1367,
      "Ġwished": 1368,
      "Ġhold": 1369,
      "Ġset": 1370,
      "Ġdark": 1371,
      "oney": 1372,
      "Ġhappily": 1373,
      "Ġmouse": 1374,
      "Ġlaugh": 1375,
      "Hell": 1376,
      "ation": 1377,
      "Hello": 1378,
      "Ġremembered": 1379,
      "Ġfull": 1380,
      "Ġslow": 1381,
      "Ġsho": 1382,
      "Ġlost": 1383,
      "Ġcars": 1384,
      "Ġlion": 1385,
      "Ġtop": 1386,
      "Ġlikes": 1387,
      "Ġfloor": 1388,
      "Ġperf": 1389,
      "Ġdri": 1390,
      "Ġdream": 1391,
      "Ġtall": 1392,
      "Ġbuy": 1393,
      "Ġsat": 1394,
      "Ġduck": 1395,
      "Ġmove": 1396,
      "ens": 1397,
      "Ġlesson": 1398,
      "Ġhill": 1399,
      "Sam": 1400,
      "ul": 1401,
      "Ġbow": 1402,
      "Ġenjoyed": 1403,
      "Ġsnow": 1404,
      "Ġpre": 1405,
      "Ġbutterfly": 1406,
      "Ġneeded": 1407,
      "Ġwear": 1408,
      "Ġleft": 1409,
      "Ġwindow": 1410,
      "iver": 1411,
      "Ġcarefully": 1412,
      "Ġthank": 1413,
      "Ġbuild": 1414,
      "rel": 1415,
      "\".": 1416,
      "ĠBenny": 1417,
      "Ġyears": 1418,
      "Ġhear": 1419,
      "Ġbug": 1420,
      "ĠAfter": 1421,
      "Ġheld": 1422,
      "Ġspot": 1423,
      "Ġhid": 1424,
      "Ġdoing": 1425,
      "Ġhun": 1426,
      "ren": 1427,
      "Ġanything": 1428,
      "cess": 1429,
      "Ġair": 1430,
      "uffy": 1431,
      "andy": 1432,
      "Ġfollowed": 1433,
      "Ġherself": 1434,
      "Ġ-": 1435,
      "Ġice": 1436,
      "John": 1437,
      "Ġwrong": 1438,
      "Ġfair": 1439,
      "Ġtable": 1440,
      "ĠIn": 1441,
      "asure": 1442,
      "Ġcontin": 1443,
      "Ġfriendly": 1444,
      "Ġfinished": 1445,
      "Ġarri": 1446,
      "reed": 1447,
      "Ġplease": 1448,
      "ined": 1449,
      "Ġsurprised": 1450,
      "orn": 1451,
      "Ġdir": 1452,
      "inally": 1453,
      "ĠDaisy": 1454,
      "ds": 1455,
      "Ġcast": 1456,
      "Ġbooks": 1457,
      "gon": 1458,
      "ream": 1459,
      "ash": 1460,
      "ĠK": 1461,
      "Ġgent": 1462,
      "ĠSally": 1463,
      "uit": 1464,
      "Ġchildren": 1465,
      "Ġsong": 1466,
      "ĠLila": 1467,
      "sp": 1468,
      "ross": 1469,
      "av": 1470,
      "ield": 1471,
      "Ġunderstand": 1472,
      "Ġdelicious": 1473,
      "Ġarrived": 1474,
      "Ġtight": 1475,
      "Ġmus": 1476,
      "Ġarm": 1477,
      "Ġmight": 1478,
      "OK": 1479,
      "Ġwonderful": 1480,
      "Ġclose": 1481,
      "Ġwants": 1482,
      "room": 1483,
      "Ġcontinued": 1484,
      "Ġmakes": 1485,
      "Ġcolors": 1486,
      "Ġleaves": 1487,
      "Ġhot": 1488,
      "Ġgrandma": 1489,
      "ĠNow": 1490,
      "Ġmat": 1491,
      "Ġforgot": 1492,
      "Ġdinner": 1493,
      "Then": 1494,
      "Ġrel": 1495,
      "Ġel": 1496,
      "Ġtail": 1497,
      "From": 1498,
      "Ġgone": 1499,
      "Ġbroken": 1500,
      "Ġpoin": 1501,
      "Ġfilled": 1502,
      "Ġmet": 1503,
      "Jack": 1504,
      "Ġsomeone": 1505,
      "man": 1506,
      "Ġscary": 1507,
      "Ġcreat": 1508,
      "Ġyes": 1509,
      "Ġvis": 1510,
      "Ġwall": 1511,
      "Ġmoment": 1512,
      "icy": 1513,
      "Ġpat": 1514,
      "Ġballoon": 1515,
      "Ġcount": 1516,
      "'ll": 1517,
      "ced": 1518,
      "ey": 1519,
      "Ġable": 1520,
      "Ġpink": 1521,
      "Ġagreed": 1522,
      "ich": 1523,
      "This": 1524,
      "Ġpictures": 1525,
      "ĠThere": 1526,
      "ĠEm": 1527,
      "Ġothers": 1528,
      "Ġtalk": 1529,
      "Ġwet": 1530,
      "row": 1531,
      "ĠBilly": 1532,
      "Ġamazing": 1533,
      "ask": 1534,
      "Ġelse": 1535,
      "Ġbreak": 1536,
      "Ġsmiles": 1537,
      "Ġfall": 1538,
      "Ġmother": 1539,
      "Ġcastle": 1540,
      "Ġgetting": 1541,
      "Ġhungry": 1542,
      "red": 1543,
      "Ġenough": 1544,
      "Ġclot": 1545,
      "Ġcookies": 1546,
      "ĠMaybe": 1547,
      "Ġtrying": 1548,
      "ĠThis": 1549,
      "Ġmar": 1550,
      "ctor": 1551,
      "lf": 1552,
      "ons": 1553,
      "Ġwhite": 1554,
      "Ġmorning": 1555,
      "Ġclothes": 1556,
      "oup": 1557,
      "ĠWhat": 1558,
      "Ġmusic": 1559,
      "oom": 1560,
      "Ġsquir": 1561,
      "key": 1562,
      "His": 1563,
      "Ġbrought": 1564,
      "Ġturned": 1565,
      "rot": 1566,
      "Ġpuppy": 1567,
      "Ġpi": 1568,
      "Ġfinally": 1569,
      "Ġclimbed": 1570,
      "lc": 1571,
      "Ġfew": 1572,
      "ĠFl": 1573,
      "At": 1574,
      "Ġsail": 1575,
      "Ġlistened": 1576,
      "Ġperfect": 1577,
      "Ġroll": 1578,
      "Ġdaddy": 1579,
      "ries": 1580,
      "Ġsquirrel": 1581,
      "Ġju": 1582,
      "app": 1583,
      "Ġpet": 1584,
      "amp": 1585,
      "Ġasks": 1586,
      "Ġspl": 1587,
      "Ġsometimes": 1588,
      "Maybe": 1589,
      "oring": 1590,
      "ĠJen": 1591,
      "Ġcomp": 1592,
      "wl": 1593,
      "zz": 1594,
      "Ġeverything": 1595,
      "Ġstayed": 1596,
      "Ġwaited": 1597,
      "apped": 1598,
      "ance": 1599,
      "Ġbeach": 1600,
      "Oh": 1601,
      "que": 1602,
      "Ġsilly": 1603,
      "ister": 1604,
      "gg": 1605,
      "ucky": 1606,
      "Ġalone": 1607,
      "Ġpol": 1608,
      "Ġgrow": 1609,
      "Ġfight": 1610,
      "ated": 1611,
      "Ġdeep": 1612,
      "ĠGra": 1613,
      "der": 1614,
      "Ġteddy": 1615,
      "Ġdanger": 1616,
      "Ġve": 1617,
      "Ġhide": 1618,
      "Ġcloud": 1619,
      "ower": 1620,
      "Ġride": 1621,
      "Ġstrange": 1622,
      "Ġwoods": 1623,
      "os": 1624,
      "Ġwasn": 1625,
      "ama": 1626,
      "Ġvisit": 1627,
      "Ġamazed": 1628,
      "Ġsit": 1629,
      "ope": 1630,
      "ence": 1631,
      "Ġsear": 1632,
      "Ġspark": 1633,
      "Ġthre": 1634,
      "Ġfox": 1635,
      "Ġbaby": 1636,
      "Ġtowards": 1637,
      "Ġflying": 1638,
      "Ġpen": 1639,
      "ott": 1640,
      "Ġpulled": 1641,
      "Ġlake": 1642,
      "Ġpa": 1643,
      "Ġcream": 1644,
      "Max": 1645,
      "Ġmoral": 1646,
      "ever": 1647,
      "ix": 1648,
      "ze": 1649,
      "eter": 1650,
      "Ġjoy": 1651,
      "Ġbran": 1652,
      "Ġdragon": 1653,
      "ĠAmy": 1654,
      "me": 1655,
      "ph": 1656,
      "ames": 1657,
      "Ġtrain": 1658,
      "Ġgu": 1659,
      "Ġjob": 1660,
      "Okay": 1661,
      "med": 1662,
      "Ġcup": 1663,
      "avy": 1664,
      "Ġsister": 1665,
      "Ġthinks": 1666,
      "up": 1667,
      "Ġbike": 1668,
      "Ġdolls": 1669,
      "cket": 1670,
      "Ġshar": 1671,
      "ssed": 1672,
      "thy": 1673,
      "Ġbigger": 1674,
      "ises": 1675,
      "igg": 1676,
      "Ġleave": 1677,
      "Ġside": 1678,
      "Ġliving": 1679,
      "ugg": 1680,
      "Ġshared": 1681,
      "Ġparty": 1682,
      "ang": 1683,
      "unch": 1684,
      "outh": 1685,
      "ĠTommy": 1686,
      "Ġprincess": 1687,
      "Ġworried": 1688,
      "Ġtreasure": 1689,
      "Ġpromised": 1690,
      "Ġgif": 1691,
      "Ġland": 1692,
      "Ġdance": 1693,
      "Ġruns": 1694,
      "Ġblank": 1695,
      "Ġmouth": 1696,
      "Ġfur": 1697,
      "Ġpaint": 1698,
      "Ġwon": 1699,
      "Ġwelc": 1700,
      "Ġgrate": 1701,
      "eces": 1702,
      "ained": 1703,
      "Ġblanket": 1704,
      "Ġfield": 1705,
      "Ġbott": 1706,
      "Ġcandy": 1707,
      "Ġdoctor": 1708,
      "Ġpieces": 1709,
      "Ġgrateful": 1710,
      "Ġhelping": 1711,
      "Ġjoin": 1712,
      "Ġslowly": 1713,
      "Ġem": 1714,
      "Ġblack": 1715,
      "Ġmoney": 1716,
      "orm": 1717,
      "Ġpot": 1718,
      "Ġfarmer": 1719,
      "Ġdangerous": 1720,
      "Ġtreat": 1721,
      "Ġowner": 1722,
      "ire": 1723,
      "Ġeverywhere": 1724,
      "Ġbelie": 1725,
      "Ġmagical": 1726,
      "ĠFluffy": 1727,
      "Ġbowl": 1728,
      "cle": 1729,
      "Ġmost": 1730,
      "iet": 1731,
      "Ġsign": 1732,
      "Ġfaster": 1733,
      "Hi": 1734,
      "ĠAll": 1735,
      "sw": 1736,
      "ually": 1737,
      "Ġcrying": 1738,
      "Ġpie": 1739,
      "Ġheavy": 1740,
      "leph": 1741,
      "Ġplan": 1742,
      "Ġmonkey": 1743,
      "set": 1744,
      "Ġreach": 1745,
      "Ġatt": 1746,
      "Ġansw": 1747,
      "Sure": 1748,
      "fort": 1749,
      "Ġcarrot": 1750,
      "ipp": 1751,
      "ĠMolly": 1752,
      "ol": 1753,
      "ĠJill": 1754,
      "bble": 1755,
      "Ġcolorful": 1756,
      "Ġtower": 1757,
      "Ġsmart": 1758,
      "Why": 1759,
      "ee": 1760,
      "ipped": 1761,
      "Ġtwins": 1762,
      "immy": 1763,
      "Ġplant": 1764,
      "Ġcho": 1765,
      "Ġquiet": 1766,
      "Ġsnack": 1767,
      "Ġdirty": 1768,
      "Ġsec": 1769,
      "Ġscream": 1770,
      "cy": 1771,
      "Ġmix": 1772,
      "ĠTo": 1773,
      "ear": 1774,
      "ling": 1775,
      "Ġstepped": 1776,
      "Ġwords": 1777,
      "Ġbroke": 1778,
      "chool": 1779,
      "Ġbath": 1780,
      "less": 1781,
      "Ġclosed": 1782,
      "Ġacc": 1783,
      "Ġsuch": 1784,
      "Ġpro": 1785,
      "Ġbar": 1786,
      "Ġhig": 1787,
      "umb": 1788,
      "ased": 1789,
      "Ġthrew": 1790,
      "ming": 1791,
      "Ġacross": 1792,
      "weet": 1793,
      "ident": 1794,
      "Ġhoped": 1795,
      "Ġwin": 1796,
      "Ġbuck": 1797,
      "cked": 1798,
      "Ġschool": 1799,
      "Ġstuck": 1800,
      "Ġtown": 1801,
      "Ġrace": 1802,
      "Ġdisapp": 1803,
      "Ġshap": 1804,
      "Ġeating": 1805,
      "Ġnap": 1806,
      "Ġheart": 1807,
      "Ġlon": 1808,
      "Ġheal": 1809,
      "Ġyard": 1810,
      "Ġsame": 1811,
      "Ġteac": 1812,
      "Ġcray": 1813,
      "de": 1814,
      "Ġcour": 1815,
      "ored": 1816,
      "Ġneigh": 1817,
      "Ġriver": 1818,
      "Ġspr": 1819,
      "Ġmust": 1820,
      "Ġlonely": 1821,
      "Ġsecret": 1822,
      "orrow": 1823,
      "Ġneighb": 1824,
      "Mia": 1825,
      "Ġbutt": 1826,
      "iting": 1827,
      "Ġfeels": 1828,
      "Ġbrown": 1829,
      "Ġcourse": 1830,
      "Ġje": 1831,
      "Ġthrow": 1832,
      "Ġwithout": 1833,
      "Ġhigher": 1834,
      "Ġbite": 1835,
      "Ġstand": 1836,
      "Ġshoes": 1837,
      "Ġwelcome": 1838,
      "Ġpushed": 1839,
      "Ġgentle": 1840,
      "Ġmonster": 1841,
      "br": 1842,
      "Ġfruit": 1843,
      "ts": 1844,
      "ract": 1845,
      "ney": 1846,
      "Ġhit": 1847,
      "Ġclapped": 1848,
      "Ġnoises": 1849,
      "Ġswings": 1850,
      "Ġbelieve": 1851,
      "Ġcoll": 1852,
      "eared": 1853,
      "Ġsea": 1854,
      "Ġtoday": 1855,
      "Ġteacher": 1856,
      "bow": 1857,
      "Ġgames": 1858,
      "Ġbee": 1859,
      "Ġbring": 1860,
      "ek": 1861,
      "ere": 1862,
      "ĠMr": 1863,
      "Ġcheered": 1864,
      "Ġrocks": 1865,
      "Ġlunch": 1866,
      "Ġleg": 1867,
      "Ġaccident": 1868,
      "Ġband": 1869,
      "ier": 1870,
      "Lila": 1871,
      "Ġpack": 1872,
      "Ġowl": 1873,
      "Ġneck": 1874,
      "Ġdrove": 1875,
      "Ġwings": 1876,
      "Ġupset": 1877,
      "Ġwell": 1878,
      "Ġpocket": 1879,
      "Ġfree": 1880,
      "Ġsang": 1881,
      "Ġjour": 1882,
      "Ġsmo": 1883,
      "ventually": 1884,
      "Ġfairy": 1885,
      "Finally": 1886,
      "Ġexplained": 1887,
      "Ġapple": 1888,
      "ible": 1889,
      "Ġben": 1890,
      "Ġcaught": 1891,
      "Ġhugs": 1892,
      "Ġorange": 1893,
      "Ġlonger": 1894,
      "Ġrainbow": 1895,
      "Ġdropped": 1896,
      "lephant": 1897,
      "Ġsoup": 1898,
      "Ġpig": 1899,
      "Ġwouldn": 1900,
      "ead": 1901,
      "issed": 1902,
      "asket": 1903,
      "Ġca": 1904,
      "Ġadventures": 1905,
      "ment": 1906,
      "oun": 1907,
      "Ġpers": 1908,
      "ĠEmma": 1909,
      "Ġdry": 1910,
      "Ġshop": 1911,
      "bby": 1912,
      "Ġhappen": 1913,
      "Ġinst": 1914,
      "Ġelephant": 1915,
      "Ġforget": 1916,
      "Ġturns": 1917,
      "Ġtom": 1918,
      "Ġmoved": 1919,
      "vel": 1920,
      "Ġspoon": 1921,
      "Ġnaught": 1922,
      "itty": 1923,
      "Ġmin": 1924,
      "idge": 1925,
      "ors": 1926,
      "Ġchair": 1927,
      "Ġswam": 1928,
      "ches": 1929,
      "Ġbasket": 1930,
      "Ġalong": 1931,
      "Ġfence": 1932,
      "Ġresp": 1933,
      "Ġnose": 1934,
      "Ġstre": 1935,
      "Ġplac": 1936,
      "Ġwhe": 1937,
      "Ġnaughty": 1938,
      "ĠDaddy": 1939,
      "Ġmine": 1940,
      "ord": 1941,
      "itting": 1942,
      "ĠThank": 1943,
      "Ġbranch": 1944,
      "ĠTweet": 1945,
      "Ġsinging": 1946,
      "Do": 1947,
      "ho": 1948,
      "ount": 1949,
      "Ġseemed": 1950,
      "Ġexploring": 1951,
      "cks": 1952,
      "fused": 1953,
      "yard": 1954,
      "Ġsu": 1955,
      "ush": 1956,
      "Ġkite": 1957,
      "Ġbackyard": 1958,
      "Ġbucket": 1959,
      "Ġmiss": 1960,
      "Ġsuddenly": 1961,
      "Ġdes": 1962,
      "ung": 1963,
      "Ġwise": 1964,
      "Ġstar": 1965,
      "ces": 1966,
      "Ġpast": 1967,
      "Ġjuice": 1968,
      "sy": 1969,
      "Ġlate": 1970,
      "ittens": 1971,
      "Ġpres": 1972,
      "Ġwish": 1973,
      "Ġshook": 1974,
      "ocked": 1975,
      "Ġbelong": 1976,
      "Ġbat": 1977,
      "ĠGrandma": 1978,
      "Ġyoung": 1979,
      "Ġtakes": 1980,
      "Ġcave": 1981,
      "Ġstars": 1982,
      "Ġexp": 1983,
      "ĠCome": 1984,
      "cer": 1985,
      "Ġdist": 1986,
      "cing": 1987,
      "Ġsick": 1988,
      "Ġnearby": 1989,
      "Ġob": 1990,
      "llo": 1991,
      "Ġwoke": 1992,
      "hone": 1993,
      "Ġes": 1994,
      "Ġbusy": 1995,
      "Ġtaking": 1996,
      "Ġwhist": 1997,
      "Ġkey": 1998,
      "Ġwar": 1999,
      "Ġtrou": 2000,
      "Ġsounds": 2001,
      "ese": 2002,
      "Ġaf": 2003,
      "Ġthough": 2004,
      "Ġgift": 2005,
      "let": 2006,
      "Ġcomes": 2007,
      "Ġwondered": 2008,
      "Ġdrink": 2009,
      "col": 2010,
      "ail": 2011,
      "Ġtiny": 2012,
      "Ġlaughing": 2013,
      "Ġcarry": 2014,
      "Ġmail": 2015,
      "Ġbench": 2016,
      "Ġpresent": 2017,
      "Ġpurp": 2018,
      "Ġsunny": 2019,
      "ions": 2020,
      "Ġarms": 2021,
      "ped": 2022,
      "Ġnest": 2023,
      "Ġinv": 2024,
      "Bob": 2025,
      "Ġmark": 2026,
      "Ġstu": 2027,
      "Ġstories": 2028,
      "Ġ3": 2029,
      "Ġmad": 2030,
      "ountain": 2031,
      "Of": 2032,
      "vered": 2033,
      "Ġpiece": 2034,
      "Ġcard": 2035,
      "raid": 2036,
      "Ġdriver": 2037,
      "Later": 2038,
      "Ġmil": 2039,
      "Ġafraid": 2040,
      "ose": 2041,
      "Ġcute": 2042,
      "Ġrelie": 2043,
      "Ġmist": 2044,
      "Ġking": 2045,
      "ĠMary": 2046,
      "Ġjar": 2047,
      "Ġpower": 2048,
      "Ġpurple": 2049,
      "Ġsitting": 2050,
      "Ġboun": 2051,
      "Ġpatient": 2052,
      "gged": 2053,
      "aughter": 2054,
      "ward": 2055,
      "Ġcolour": 2056,
      "Ġyear": 2057,
      "Ġwra": 2058,
      "ining": 2059,
      "Ġcozy": 2060,
      "Ġdanced": 2061,
      "Ġsnowman": 2062,
      "Ġhello": 2063,
      "Ġgigg": 2064,
      "Ġround": 2065,
      "Ġfan": 2066,
      "ĠInside": 2067,
      "Ġlift": 2068,
      "pe": 2069,
      "thday": 2070,
      "ball": 2071,
      "uched": 2072,
      "Ġtouched": 2073,
      "Ġeas": 2074,
      "Ġdays": 2075,
      "Ġnothing": 2076,
      "shine": 2077,
      "unt": 2078,
      "Ġexciting": 2079,
      "pping": 2080,
      "sting": 2081,
      "ize": 2082,
      "Ġwatching": 2083,
      "Ġletter": 2084,
      "itten": 2085,
      "Ġsunshine": 2086,
      "Hey": 2087,
      "Ġgives": 2088,
      "eth": 2089,
      "Ġshapes": 2090,
      "Ġmilk": 2091,
      "Ġegg": 2092,
      "Ġcreature": 2093,
      "Ġlife": 2094,
      "Ġholding": 2095,
      "aur": 2096,
      "Ġcir": 2097,
      "Ġfit": 2098,
      "Ġdaughter": 2099,
      "Ġpudd": 2100,
      "ĠFinally": 2101,
      "Ġcheese": 2102,
      "Ġce": 2103,
      "Ġintere": 2104,
      "Ġcomfort": 2105,
      "Ġimag": 2106,
      "Ġswimming": 2107,
      "Ġaccidentally": 2108,
      "Ġbought": 2109,
      "Ġpath": 2110,
      "Ġvill": 2111,
      "Ġdisco": 2112,
      "Lucy": 2113,
      "Ġbirthday": 2114,
      "Ġhope": 2115,
      "Ġbush": 2116,
      "Ġbottle": 2117,
      "Ġinstead": 2118,
      "Ġpuzz": 2119,
      "And": 2120,
      "Good": 2121,
      "Ġfing": 2122,
      "oose": 2123,
      "to": 2124,
      "Ġfarm": 2125,
      "board": 2126,
      "Ġjourney": 2127,
      "alm": 2128,
      "Ġgrand": 2129,
      "Ġstreet": 2130,
      "Ġrelieved": 2131,
      "og": 2132,
      "Ġrob": 2133,
      "Ġpeace": 2134,
      "Ġsharp": 2135,
      "pa": 2136,
      "Ġspo": 2137,
      "Ġsmelled": 2138,
      "Ġlucky": 2139,
      "irt": 2140,
      "Ġwrite": 2141,
      "Ġroad": 2142,
      "Ġgrab": 2143,
      "Ġtasty": 2144,
      "ĠO": 2145,
      "Ġinc": 2146,
      "epend": 2147,
      "Ġanyone": 2148,
      "ness": 2149,
      "Ġpill": 2150,
      "Ġsmiling": 2151,
      "Ġear": 2152,
      "Ġforever": 2153,
      "Ġsandw": 2154,
      "Ġhuge": 2155,
      "Ġpointed": 2156,
      "Ġrespect": 2157,
      "Ġrobot": 2158,
      "ity": 2159,
      "ĠSoon": 2160,
      "fish": 2161,
      "Ġres": 2162,
      "Ġorgan": 2163,
      "Ġtalked": 2164,
      "Ġcrayons": 2165,
      "itch": 2166,
      "Ġfeather": 2167,
      "adow": 2168,
      "ĠMama": 2169,
      "ĠSomet": 2170,
      "Ġact": 2171,
      "Come": 2172,
      "Ġplane": 2173,
      "Ġkick": 2174,
      "Ġknee": 2175,
      "Ġpract": 2176,
      "Ġret": 2177,
      "Ġloves": 2178,
      "Ġkiss": 2179,
      "Ġpromise": 2180,
      "Ġsearched": 2181,
      "Ġtun": 2182,
      "amed": 2183,
      "ĠSammy": 2184,
      "els": 2185,
      "Ġfoot": 2186,
      "Ġzoom": 2187,
      "Ġrolled": 2188,
      "ĠJimmy": 2189,
      "Ġsur": 2190,
      "Ġputs": 2191,
      "Ġlater": 2192,
      "Ġcor": 2193,
      "Ġpar": 2194,
      "blem": 2195,
      "ove": 2196,
      "Ġrope": 2197,
      "Ġproblem": 2198,
      "la": 2199,
      "Ġwild": 2200,
      "Ġclouds": 2201,
      "Ġhealthy": 2202,
      "Ġreturn": 2203,
      "ĠMittens": 2204,
      "ont": 2205,
      "Ġonto": 2206,
      "Ġadm": 2207,
      "Ġstorm": 2208,
      "Ġcouch": 2209,
      "Ġhoney": 2210,
      "Ġzoo": 2211,
      "ale": 2212,
      "Ġwave": 2213,
      "Ġteach": 2214,
      "ĠRe": 2215,
      "Ġbutton": 2216,
      "Ġinteresting": 2217,
      "Ġwide": 2218,
      "Ġcoin": 2219,
      "Ġcoat": 2220,
      "Ġtasted": 2221,
      "Ġcow": 2222,
      "Ġrocket": 2223,
      "Ġfront": 2224,
      "Ġperson": 2225,
      "ten": 2226,
      "Ġsack": 2227,
      "ife": 2228,
      "Ġmyster": 2229,
      "Ġap": 2230,
      "Ġgather": 2231,
      "Ġcollect": 2232,
      "Ġgently": 2233,
      "Ġhelpful": 2234,
      "Ġpass": 2235,
      "Ġeag": 2236,
      "cean": 2237,
      "Ġwhole": 2238,
      "Ġhor": 2239,
      "Ġocean": 2240,
      "Ġash": 2241,
      "Ġbread": 2242,
      "Ġscreamed": 2243,
      "Ġsuc": 2244,
      "Ġgoes": 2245,
      "Ġmeet": 2246,
      "Ġpush": 2247,
      "Ġplaces": 2248,
      "Ġmach": 2249,
      "Ġapples": 2250,
      "ĠJenny": 2251,
      "In": 2252,
      "Ġoven": 2253,
      "Ġshr": 2254,
      "Ġlovely": 2255,
      "Ġbark": 2256,
      "Ġent": 2257,
      "Ġemb": 2258,
      "Ġdi": 2259,
      "Ġasleep": 2260,
      "Tommy": 2261,
      "Ġcheer": 2262,
      "Ġwaiting": 2263,
      "ert": 2264,
      "Ġimpre": 2265,
      "Ġbuilding": 2266,
      "Ġsaf": 2267,
      "izz": 2268,
      "Ġtalking": 2269,
      "Ġquest": 2270,
      "Ġducks": 2271,
      "ching": 2272,
      "Ġprot": 2273,
      "Ġsplas": 2274,
      "Ġshining": 2275,
      "Ġlad": 2276,
      "Ġspicy": 2277,
      "ĠGo": 2278,
      "Ġwearing": 2279,
      "ĠKitty": 2280,
      "Ġpile": 2281,
      "Ġscar": 2282,
      "Ġmud": 2283,
      "Ġpretended": 2284,
      "Ġneighbor": 2285,
      "Ġtrouble": 2286,
      "hile": 2287,
      "Ġbal": 2288,
      "ub": 2289,
      "arra": 2290,
      "Ġfaces": 2291,
      "Ġslid": 2292,
      "Ġpour": 2293,
      "Ġstir": 2294,
      "Ġspent": 2295,
      "Ġembarra": 2296,
      "Ġprotect": 2297,
      "Ġser": 2298,
      "Ġthin": 2299,
      "ird": 2300,
      "Ġconfused": 2301,
      "lex": 2302,
      "owed": 2303,
      "Ġspid": 2304,
      "Ġfinish": 2305,
      "umber": 2306,
      "Ġwhich": 2307,
      "Ġsnake": 2308,
      "Ġpool": 2309,
      "Ġfeet": 2310,
      "Ġdelight": 2311,
      "Ġsupp": 2312,
      "Molly": 2313,
      "Ġforgive": 2314,
      "Ġtrip": 2315,
      "isa": 2316,
      "urse": 2317,
      "aser": 2318,
      "Ġgiant": 2319,
      "Ġtomorrow": 2320,
      "Ġminut": 2321,
      "Ġvillage": 2322,
      "Just": 2323,
      "Ġnut": 2324,
      "Ġstep": 2325,
      "St": 2326,
      "Ġladder": 2327,
      "arge": 2328,
      "Ġflut": 2329,
      "Ġtrust": 2330,
      "Ġspotted": 2331,
      "Ġchick": 2332,
      "Ġmatter": 2333,
      "ĠSometimes": 2334,
      "Ġblew": 2335,
      "Ġcart": 2336,
      "Ġpop": 2337,
      "Ġclever": 2338,
      "Ġsongs": 2339,
      "Ġshy": 2340,
      "Ġworm": 2341,
      "Ġwom": 2342,
      "getable": 2343,
      "bbles": 2344,
      "Ġpuddle": 2345,
      "Ġhon": 2346,
      "nny": 2347,
      "ĠCh": 2348,
      "Ġvegetable": 2349,
      "Ġfurry": 2350,
      "Ġchocol": 2351,
      "Ġcorner": 2352,
      "Ġeventually": 2353,
      "ĠAl": 2354,
      "Ġteeth": 2355,
      "Ġwoman": 2356,
      "Every": 2357,
      "Ġlay": 2358,
      "Ġgun": 2359,
      "Ġfixed": 2360,
      "ĠSome": 2361,
      "Ġseat": 2362,
      "Ġdirt": 2363,
      "ular": 2364,
      "Ġhorse": 2365,
      "Ġwash": 2366,
      "ato": 2367,
      "Ġtaste": 2368,
      "Now": 2369,
      "Ġsal": 2370,
      "Ġant": 2371,
      "Ġcoo": 2372,
      "lebr": 2373,
      "Ġrec": 2374,
      "Ġwhenever": 2375,
      "Ġdrive": 2376,
      "Ġcelebr": 2377,
      "Ġphone": 2378,
      "ĠHow": 2379,
      "Ġspin": 2380,
      "ĠWith": 2381,
      "Ġchocolate": 2382,
      "Ġlem": 2383,
      "Ġshirt": 2384,
      "Ġtries": 2385,
      "Ġanswer": 2386,
      "not": 2387,
      "Ġlarge": 2388,
      "Ġcannot": 2389,
      "Ġcloth": 2390,
      "Ġlast": 2391,
      "Ġembarrassed": 2392,
      "hnny": 2393,
      "Ġban": 2394,
      "Ġnet": 2395,
      "als": 2396,
      "Ġhiding": 2397,
      "Ġneckl": 2398,
      "gly": 2399,
      "Ġwip": 2400,
      "erly": 2401,
      "lla": 2402,
      "Ġshell": 2403,
      "Ġign": 2404,
      "Ġcalm": 2405,
      "Ġrude": 2406,
      "Soon": 2407,
      "Ġ'": 2408,
      "Ġugly": 2409,
      "Ġbugs": 2410,
      "Ġsmooth": 2411,
      "My": 2412,
      "Ġtest": 2413,
      "Ġmind": 2414,
      "Ġremind": 2415,
      "Ġappeared": 2416,
      "Mum": 2417,
      "nic": 2418,
      "old": 2419,
      "ĠTheir": 2420,
      "Ġscre": 2421,
      "Ġstret": 2422,
      "Ġseek": 2423,
      "Ġtea": 2424,
      "Ġpicnic": 2425,
      "Ġcookie": 2426,
      "Ġring": 2427,
      "Ġlive": 2428,
      "Ġkitten": 2429,
      "ighed": 2430,
      "Ġtool": 2431,
      "Ġsticks": 2432,
      "Ġwhistle": 2433,
      "eb": 2434,
      "Ġmaybe": 2435,
      "Ġsol": 2436,
      "Ġhears": 2437,
      "ground": 2438,
      "vous": 2439,
      "Ġpin": 2440,
      "Ġspe": 2441,
      "Ġmot": 2442,
      "ĠTV": 2443,
      "Ġfold": 2444,
      "ĠPlease": 2445,
      "Ġcarrots": 2446,
      "Ġpuzzle": 2447,
      "Ġpan": 2448,
      "Ġpaw": 2449,
      "Ġmed": 2450,
      "Ġstood": 2451,
      "Ġshelf": 2452,
      "Ġsplash": 2453,
      "Ġspray": 2454,
      "Ġnecklace": 2455,
      "mo": 2456,
      "Ġmoon": 2457,
      "ÅĵI": 2458,
      "Ġspider": 2459,
      "ĠJust": 2460,
      "Ġval": 2461,
      "Ġjumping": 2462,
      "arm": 2463,
      "Ġbell": 2464,
      "Ġforward": 2465,
      "Ġmachine": 2466,
      "Ġgas": 2467,
      "den": 2468,
      "Ġmountain": 2469,
      "Ġbarked": 2470,
      "Ġfancy": 2471,
      "Ġcarried": 2472,
      "Ġgrew": 2473,
      "Ġsparkly": 2474,
      "ned": 2475,
      "Ġmeant": 2476,
      "Ġner": 2477,
      "Ġsave": 2478,
      "Ġroar": 2479,
      "Ġtells": 2480,
      "Ġwore": 2481,
      "airs": 2482,
      "ult": 2483,
      "Ġcreative": 2484,
      "ĠEmily": 2485,
      "Ġhel": 2486,
      "Ġflag": 2487,
      "box": 2488,
      "Ġtightly": 2489,
      "Ġfighting": 2490,
      "Ġemp": 2491,
      "Ġnervous": 2492,
      "obby": 2493,
      "Ġsel": 2494,
      "Ġburn": 2495,
      "Ġknocked": 2496,
      "Ġsleepy": 2497,
      "ungle": 2498,
      "read": 2499,
      "Ġship": 2500,
      "ours": 2501,
      "Ġempty": 2502,
      "dge": 2503,
      "hin": 2504,
      "ym": 2505,
      "Ġsour": 2506,
      "pper": 2507,
      "Ġjungle": 2508,
      "Ġblow": 2509,
      "ying": 2510,
      "umpy": 2511,
      "Ġdrew": 2512,
      "Ġgroup": 2513,
      "Ġlanded": 2514,
      "Ġtreats": 2515,
      "Ġpillow": 2516,
      "Ġbanan": 2517,
      "Ġcross": 2518,
      "ĠBe": 2519,
      "Ġwhis": 2520,
      "Ġspread": 2521,
      "Ġtid": 2522,
      "Ġple": 2523,
      "Ġpizz": 2524,
      "ones": 2525,
      "Ġstring": 2526,
      "Ġdrum": 2527,
      "Ġhidden": 2528,
      "Ġpolite": 2529,
      "Ġsharing": 2530,
      "Ġscarf": 2531,
      "aking": 2532,
      "dle": 2533,
      "oin": 2534,
      "Ġcage": 2535,
      "izzy": 2536,
      "Ġyelled": 2537,
      "Ġmysterious": 2538,
      "Ġknight": 2539,
      "ĠWhy": 2540,
      "Ġpri": 2541,
      "Ġashamed": 2542,
      "cap": 2543,
      "Ġgar": 2544,
      "Ġcrab": 2545,
      "Ġque": 2546,
      "Ġhum": 2547,
      "Ġchased": 2548,
      "Ġsnacks": 2549,
      "ian": 2550,
      "Ġbreath": 2551,
      "Ġdisappoin": 2552,
      "Ġmotor": 2553,
      "Ġpir": 2554,
      "Ġgen": 2555,
      "Ġstra": 2556,
      "Ġnods": 2557,
      "Ġselfish": 2558,
      "Ġmissed": 2559,
      "Ġstone": 2560,
      "Ġdecor": 2561,
      "ĠOn": 2562,
      "ital": 2563,
      "Ġcries": 2564,
      "Ġgray": 2565,
      "Ġpowerful": 2566,
      "era": 2567,
      "ella": 2568,
      "Ġvase": 2569,
      "Ġhosp": 2570,
      "Ġclear": 2571,
      "Ġchest": 2572,
      "ery": 2573,
      "ĠTogether": 2574,
      "Ġstanding": 2575,
      "Ġwhisp": 2576,
      "Ġthese": 2577,
      "usie": 2578,
      "Ġvegetables": 2579,
      "Ġhospital": 2580,
      "Ġleaf": 2581,
      "erry": 2582,
      "ony": 2583,
      "Ġlemon": 2584,
      "There": 2585,
      "Ġreg": 2586,
      "Ġgold": 2587,
      "fl": 2588,
      "Ġseed": 2589,
      "Ġjew": 2590,
      "Stop": 2591,
      "Ġqueen": 2592,
      "Ġscr": 2593,
      "Ġbridge": 2594,
      "ustr": 2595,
      "ĠEverywhere": 2596,
      "osaur": 2597,
      "Ġbathroom": 2598,
      "Ġpeaceful": 2599,
      "Ġcap": 2600,
      "Ġpray": 2601,
      "Ġchew": 2602,
      "ĠZ": 2603,
      "Ġline": 2604,
      "ĠLe": 2605,
      "eterm": 2606,
      "Ġpizza": 2607,
      "Ġdisappointed": 2608,
      "Ġfeed": 2609,
      "Be": 2610,
      "Ġav": 2611,
      "Ġbored": 2612,
      "Ġcri": 2613,
      "Ġdeterm": 2614,
      "orry": 2615,
      "Ġboard": 2616,
      "ĠJake": 2617,
      "Ġgiggled": 2618,
      "Where": 2619,
      "erp": 2620,
      "unk": 2621,
      "Ġspoil": 2622,
      "Ġgarage": 2623,
      "ĠOK": 2624,
      "Ġhur": 2625,
      "itter": 2626,
      "Ġmeadow": 2627,
      "ĠDon": 2628,
      "Ġknowing": 2629,
      "Ġeasy": 2630,
      "Jane": 2631,
      "Please": 2632,
      "Ġsaved": 2633,
      "ano": 2634,
      "Ġdancing": 2635,
      "Ġfrustr": 2636,
      "Ġplants": 2637,
      "Ġfinger": 2638,
      "pack": 2639,
      "ĠLisa": 2640,
      "Ġsweetie": 2641,
      "Ġcirc": 2642,
      "Ġsandwich": 2643,
      "Ġcand": 2644,
      "ets": 2645,
      "ĠAnn": 2646,
      "Ġclown": 2647,
      "Ġbecome": 2648,
      "Ġpolice": 2649,
      "most": 2650,
      "Ġsque": 2651,
      "Ġfil": 2652,
      "Sue": 2653,
      "Ġtick": 2654,
      "ĠSt": 2655,
      "cept": 2656,
      "Ġmessy": 2657,
      "ensive": 2658,
      "Ġlegs": 2659,
      "Ġgener": 2660,
      "Ġfig": 2661,
      "ete": 2662,
      "Ġplayground": 2663,
      "ĠMum": 2664,
      "Ġexam": 2665,
      "Ġunderstood": 2666,
      "Ġdinosaur": 2667,
      "Ġexpensive": 2668,
      "Are": 2669,
      "Ġalmost": 2670,
      "ĠPeter": 2671,
      "Ġminutes": 2672,
      "Ġplate": 2673,
      "Ġfear": 2674,
      "Ġtaught": 2675,
      "Ġtears": 2676,
      "light": 2677,
      "Ġruined": 2678,
      "Ġsailed": 2679,
      "Ġfrustrated": 2680,
      "Ġhours": 2681,
      "Ġwaves": 2682,
      "Ġlock": 2683,
      "ĠJohnny": 2684,
      "Ġmatch": 2685,
      "ti": 2686,
      "ĠEven": 2687,
      "Mama": 2688,
      "ual": 2689,
      "Ġwagged": 2690,
      "ator": 2691,
      "Ġmeasure": 2692,
      "ecially": 2693,
      "issors": 2694,
      "Ġtidy": 2695,
      "Dad": 2696,
      "pecially": 2697,
      "Ġtag": 2698,
      "ates": 2699,
      "Ġhang": 2700,
      "Ġshore": 2701,
      "Ġclap": 2702,
      "Ġespecially": 2703,
      "Ġcomfortable": 2704,
      "To": 2705,
      "Ġbone": 2706,
      "Ġgate": 2707,
      "Ġscissors": 2708,
      "Ġanswered": 2709,
      "Ġsuccess": 2710,
      "ĠBr": 2711,
      "Ġasking": 2712,
      "Ġexcite": 2713,
      "Ġtrue": 2714,
      "Ġkissed": 2715,
      "Ġlead": 2716,
      "Ġcaterp": 2717,
      "Ġmistake": 2718,
      "Ġgenerous": 2719,
      "Ġcaterpill": 2720,
      "Ġdest": 2721,
      "Ġpas": 2722,
      "Ġdrawing": 2723,
      "Ġpassed": 2724,
      "Ġfake": 2725,
      "Ġmic": 2726,
      "Ġhopping": 2727,
      "Ġhonest": 2728,
      "Ġsug": 2729,
      "iddle": 2730,
      "illed": 2731,
      "Ġgets": 2732,
      "Ġhurts": 2733,
      "Ġfruits": 2734,
      "Ġpay": 2735,
      "ĠTeddy": 2736,
      "iger": 2737,
      "Ġweak": 2738,
      "Ġfluffy": 2739,
      "Ġyourself": 2740,
      "Ġballs": 2741,
      "Ġglue": 2742,
      "Ġexcitement": 2743,
      "ond": 2744,
      "Ġboring": 2745,
      "Ġoften": 2746,
      "Ġpoor": 2747,
      "Ġgrumpy": 2748,
      "Ġfridge": 2749,
      "Ġflute": 2750,
      "Jill": 2751,
      "arl": 2752,
      "Ġsold": 2753,
      "Ġcaterpillar": 2754,
      "Ġadd": 2755,
      "Ġwis": 2756,
      "ots": 2757,
      "elp": 2758,
      "ĠJim": 2759,
      "Ġsugar": 2760,
      "Ġlit": 2761,
      "oof": 2762,
      "Ġlog": 2763,
      "Ġnumber": 2764,
      "Ġstuff": 2765,
      "arth": 2766,
      "Ġknife": 2767,
      "Ġtaken": 2768,
      "Ġmole": 2769,
      "Ġeye": 2770,
      "Ġtunn": 2771,
      "mb": 2772,
      "Ġtie": 2773,
      "Ġsighed": 2774,
      "Ġsoap": 2775,
      "Ġspend": 2776,
      "iff": 2777,
      "elly": 2778,
      "Ġmoving": 2779,
      "selves": 2780,
      "Ġbalance": 2781,
      "'d": 2782,
      "ĠAt": 2783,
      "Ġglass": 2784,
      "ĠRex": 2785,
      "Ġgathered": 2786,
      "Ġpleased": 2787,
      "Ġtent": 2788,
      "Ġsil": 2789,
      "ĠIf": 2790,
      "illi": 2791,
      "Ġworking": 2792,
      "Ġchange": 2793,
      "Ġcloset": 2794,
      "Sarah": 2795,
      "Ġprince": 2796,
      "Ġreturned": 2797,
      "Jimmy": 2798,
      "Sorry": 2799,
      "Who": 2800,
      "Ġmiddle": 2801,
      "Their": 2802,
      "Ġang": 2803,
      "Ġsplashed": 2804,
      "Ġdetermined": 2805,
      "af": 2806,
      "Ġwander": 2807,
      "Ġcheck": 2808,
      "Ġjog": 2809,
      "Ġeggs": 2810,
      "land": 2811,
      "Ġed": 2812,
      "Ġwagon": 2813,
      "Ġcraw": 2814,
      "Ġdisappeared": 2815,
      "Ġescap": 2816,
      "Ġincred": 2817,
      "port": 2818,
      "uce": 2819,
      "Ġrid": 2820,
      "Ġrad": 2821,
      "?\".": 2822,
      "Ġjoke": 2823,
      "Ġcrawled": 2824,
      "Help": 2825,
      "Ġhorn": 2826,
      "Ġclass": 2827,
      "Ġnod": 2828,
      "Ġpicks": 2829,
      "Ġwalks": 2830,
      "Ġer": 2831,
      "Ġham": 2832,
      "Ġbedroom": 2833,
      "Ġcontent": 2834,
      "Ġdrop": 2835,
      "Ġwheel": 2836,
      "Me": 2837,
      "Ġborrow": 2838,
      "aged": 2839,
      "Ġtwirl": 2840,
      "Ġtrucks": 2841,
      "Ġpacked": 2842,
      "Ġdish": 2843,
      "Ġears": 2844,
      "Ġstones": 2845,
      "Ġdrank": 2846,
      "Ġmighty": 2847,
      "Ġind": 2848,
      "Ġbake": 2849,
      "Ġcover": 2850,
      "Ġlazy": 2851,
      "Ġdecide": 2852,
      "Ġdogs": 2853,
      "Ġfamous": 2854,
      "Ġfeathers": 2855,
      "iness": 2856,
      "ating": 2857,
      "Ġtowel": 2858,
      "Ġthankful": 2859,
      "ĠTweety": 2860,
      "Ġmarket": 2861,
      "ps": 2862,
      "ina": 2863,
      "Ġlying": 2864,
      "Ġmummy": 2865,
      "ote": 2866,
      "Ġbrush": 2867,
      "Ġchoose": 2868,
      "ĠEnd": 2869,
      "Ġglow": 2870,
      "Ġfather": 2871,
      "Ġdepend": 2872,
      "ination": 2873,
      "ĠSusie": 2874,
      "anut": 2875,
      "Ġthick": 2876,
      "Ġrough": 2877,
      "Ġboss": 2878,
      "Ġjam": 2879,
      "usual": 2880,
      "Ġcalling": 2881,
      "Ġcleaned": 2882,
      "Ġunusual": 2883,
      "ĠLeo": 2884,
      "Ġincredible": 2885,
      "Ġweek": 2886,
      "ĠBl": 2887,
      "Ġbody": 2888,
      "Ġshows": 2889,
      "Ġadventur": 2890,
      "Ġorganized": 2891,
      "Ġmir": 2892,
      "ilt": 2893,
      "Ġskipped": 2894,
      "Ġdiscovered": 2895,
      "How": 2896,
      "ĠBu": 2897,
      "Ġcovered": 2898,
      "ushed": 2899,
      "Ġgrandpa": 2900,
      "Ġpointing": 2901,
      "Ġhappening": 2902,
      "Ġadventurous": 2903,
      "Ġpil": 2904,
      "Ġyarn": 2905,
      "aul": 2906,
      "Ġneeds": 2907,
      "Ġaccept": 2908,
      "Ġrelax": 2909,
      "Ġjewel": 2910,
      "gy": 2911,
      "Ġrare": 2912,
      "Ġbrilli": 2913,
      "Ġwrote": 2914,
      "Mummy": 2915,
      "Ġfool": 2916,
      "Ġdizzy": 2917,
      "ork": 2918,
      "ĠBella": 2919,
      "Ġlose": 2920,
      "Ġcoins": 2921,
      "Ġord": 2922,
      "Ġtwig": 2923,
      "Ġcrawl": 2924,
      "Ġsmelly": 2925,
      "Ġmedic": 2926,
      "kin": 2927,
      "imed": 2928,
      "Ġbrilliant": 2929,
      "Ġmedicine": 2930,
      "Billy": 2931,
      "ror": 2932,
      "edient": 2933,
      "Ġrat": 2934,
      "Ġweal": 2935,
      "Ġvan": 2936,
      "Ġsmaller": 2937,
      "Ġcolourful": 2938,
      "Ġtunnel": 2939,
      "Gra": 2940,
      "Ġhunt": 2941,
      "Ġlamp": 2942,
      "imp": 2943,
      "Ġweird": 2944,
      "Ġmoms": 2945,
      "asing": 2946,
      "Ġword": 2947,
      "Ġswan": 2948,
      "Ġmod": 2949,
      "Ġgrown": 2950,
      "Ġteam": 2951,
      "Ġmixed": 2952,
      "Ġwrapped": 2953,
      "Ġchicken": 2954,
      "ĠBrown": 2955,
      "Ġdig": 2956,
      "ature": 2957,
      "Ġsheep": 2958,
      "Ġdistance": 2959,
      "Al": 2960,
      "Ġcop": 2961,
      "Ġow": 2962,
      "Ġdolp": 2963,
      "Ġfalls": 2964,
      "Ġguess": 2965,
      "Ġdependable": 2966,
      "aid": 2967,
      "hip": 2968,
      "Ġlicked": 2969,
      "Ġwolf": 2970,
      "Ġbranches": 2971,
      "work": 2972,
      "Ġfine": 2973,
      "Ġonce": 2974,
      "Ġfrown": 2975,
      "Ġsounded": 2976,
      "Ġfoolish": 2977,
      "ĠMy": 2978,
      "Ġpeanut": 2979,
      "Ġoffered": 2980,
      "Ġcrack": 2981,
      "Ġcrown": 2982,
      "Ġwalls": 2983,
      "Ġsafely": 2984,
      "Ġbitter": 2985,
      "Ġfis": 2986,
      "Ġisland": 2987,
      "Ġboys": 2988,
      "Ġflash": 2989,
      "Ġstronger": 2990,
      "uggled": 2991,
      "Ġbottom": 2992,
      "Ġobedient": 2993,
      "Ġquestions": 2994,
      "Ġedge": 2995,
      "aw": 2996,
      "appy": 2997,
      "Ġsight": 2998,
      "Ġcone": 2999,
      "Ġmap": 3000,
      "Ġrich": 3001,
      "Ġsell": 3002,
      "Ġmanaged": 3003,
      "Ġchase": 3004,
      "Ġgrace": 3005,
      "Ġpicking": 3006,
      "Ġboxes": 3007,
      "Amy": 3008,
      "Ġones": 3009,
      "ested": 3010,
      "ĠPete": 3011,
      "Ġmagn": 3012,
      "Ġbuttons": 3013,
      "Ġimpressed": 3014,
      "Ġmirror": 3015,
      "Sp": 3016,
      "fic": 3017,
      "Ġter": 3018,
      "ured": 3019,
      "Ġnoisy": 3020,
      "Ġeager": 3021,
      "alous": 3022,
      "ĠDucky": 3023,
      "Ġbull": 3024,
      "body": 3025,
      "umbers": 3026,
      "Ġjealous": 3027,
      "Ġbanana": 3028,
      "Sally": 3029,
      "cient": 3030,
      "gu": 3031,
      "Ġsugg": 3032,
      "anged": 3033,
      "ĠBobby": 3034,
      "Ġskin": 3035,
      "Ġkindness": 3036,
      "Ġdiffic": 3037,
      "umbled": 3038,
      "Ġstudy": 3039,
      "Ġfigure": 3040,
      "bin": 3041,
      "fa": 3042,
      "Ġcabin": 3043,
      "Ġwealthy": 3044,
      "cil": 3045,
      "und": 3046,
      "ĠNo": 3047,
      "Ġancient": 3048,
      "Here": 3049,
      "ĠBobo": 3050,
      "Joe": 3051,
      "Ġpencil": 3052,
      "ext": 3053,
      "ique": 3054,
      "Ġwand": 3055,
      "ory": 3056,
      "Ġscare": 3057,
      "Ġmov": 3058,
      "Ġangel": 3059,
      "Ġdifficult": 3060,
      "het": 3061,
      "Ġadded": 3062,
      "Ġharm": 3063,
      "Ġpant": 3064,
      "Ġunique": 3065,
      "Ġpainting": 3066,
      "Ġlights": 3067,
      "Ġterri": 3068,
      "fast": 3069,
      "Ġicy": 3070,
      "Ġok": 3071,
      "Ġnumbers": 3072,
      "Ġshake": 3073,
      "Ġdove": 3074,
      "Ġjelly": 3075,
      "Ġyours": 3076,
      "Ġbubbles": 3077,
      "Ġsnee": 3078,
      "emo": 3079,
      "Ġdeer": 3080,
      "Ġpainted": 3081,
      "Ġgiving": 3082,
      "Ġsmoke": 3083,
      "Ġcorn": 3084,
      "Ġrode": 3085,
      "ages": 3086,
      "aghet": 3087,
      "Ġlouder": 3088,
      "Ġbreakfast": 3089,
      "olog": 3090,
      "Ġbelonged": 3091,
      "Ġrecord": 3092,
      "aghetti": 3093,
      "Re": 3094,
      "zed": 3095,
      "Ġtank": 3096,
      "Ġaunt": 3097,
      "Ġcher": 3098,
      "Ġspaghetti": 3099,
      "Ġapolog": 3100,
      "we": 3101,
      "yal": 3102,
      "Ġdull": 3103,
      "Ġhelps": 3104,
      "Ġsunfl": 3105,
      "Ġprint": 3106,
      "Ġmarble": 3107,
      "Ġsearch": 3108,
      "Ġcrayon": 3109,
      "ĠMrs": 3110,
      "ye": 3111,
      "Ġcro": 3112,
      "rag": 3113,
      "Ġpee": 3114,
      "Ġrealised": 3115,
      "Ġhats": 3116,
      "Ġsquare": 3117,
      "Ġdreams": 3118,
      "Jen": 3119,
      "Ġmelt": 3120,
      "Ġeld": 3121,
      "Ġroof": 3122,
      "keep": 3123,
      "ention": 3124,
      "ĠFred": 3125,
      "Ġtwist": 3126,
      "Ġuseful": 3127,
      "Ġshoot": 3128,
      "Ġhipp": 3129,
      "Ġrice": 3130,
      "Ġwhale": 3131,
      "ĠMummy": 3132,
      "umsy": 3133,
      "Ġagainst": 3134,
      "Ġtape": 3135,
      "Ġdreamed": 3136,
      "laimed": 3137,
      "Well": 3138,
      "Ġearth": 3139,
      "Ġfork": 3140,
      "Ġenvel": 3141,
      "Ġbuilt": 3142,
      "Ġperform": 3143,
      "Ġballoons": 3144,
      "Ġpenny": 3145,
      "Ġcheerful": 3146,
      "Ġtools": 3147,
      "Ġfre": 3148,
      "Ġfour": 3149,
      "Ġlow": 3150,
      "oop": 3151,
      "Ġnosy": 3152,
      "Ġexclaimed": 3153,
      "uddy": 3154,
      "Ġkinds": 3155,
      "arsh": 3156,
      "Ġunl": 3157,
      "ĠRed": 3158,
      "Ġbushes": 3159,
      "Ġdesk": 3160,
      "ject": 3161,
      "Ġturt": 3162,
      "Ġtoug": 3163,
      "Ġcudd": 3164,
      "ĠSn": 3165,
      "Ġabove": 3166,
      "Ġcounted": 3167,
      "Ġjuicy": 3168,
      "ĠToday": 3169,
      "Ġsquee": 3170,
      "head": 3171,
      "Ġtummy": 3172,
      "Ġloyal": 3173,
      "Ġscale": 3174,
      "Ġharder": 3175,
      "Ġbags": 3176,
      "Ġlifted": 3177,
      "Ġtiger": 3178,
      "Ġthose": 3179,
      "Ġlean": 3180,
      "ouses": 3181,
      "Ġfier": 3182,
      "Ġfavour": 3183,
      "Ġrub": 3184,
      "Ġpractice": 3185,
      "rop": 3186,
      "Ġnurse": 3187,
      "irp": 3188,
      "oph": 3189,
      "Ġcost": 3190,
      "Ġslipped": 3191,
      "berries": 3192,
      "Ġscrat": 3193,
      "oppy": 3194,
      "Ġsuit": 3195,
      "ress": 3196,
      "Ġgoose": 3197,
      "Ġstri": 3198,
      "ĠMar": 3199,
      "Ġlaw": 3200,
      "Ġthoughtful": 3201,
      "Ġdreaming": 3202,
      "Ġscreen": 3203,
      "Ġbossy": 3204,
      "ĠBlue": 3205,
      "Ġhippo": 3206,
      "pes": 3207,
      "Ġhouses": 3208,
      "omed": 3209,
      "Ġsofa": 3210,
      "Ġhappiness": 3211,
      "Ġseem": 3212,
      "Ġserious": 3213,
      "Ġindepend": 3214,
      "Ġenvelope": 3215,
      "Ġtough": 3216,
      "Ġfavourite": 3217,
      "Ġtask": 3218,
      "orge": 3219,
      "Ġyog": 3220,
      "Ġclumsy": 3221,
      "Ġknows": 3222,
      "Ġloudly": 3223,
      "Ġenjoying": 3224,
      "Ġusing": 3225,
      "Ġlaughs": 3226,
      "Ġpale": 3227,
      "upid": 3228,
      "Ġinvited": 3229,
      "Ġbounce": 3230,
      "Ġeraser": 3231,
      "Ġturtle": 3232,
      "Ġgem": 3233,
      "Ġstream": 3234,
      "Ġnotice": 3235,
      "rage": 3236,
      "Ġstove": 3237,
      "Ġrubbed": 3238,
      "Ġmarch": 3239,
      "Ġspoiled": 3240,
      "Ow": 3241,
      "oe": 3242,
      "ither": 3243,
      "amond": 3244,
      "Ġsaying": 3245,
      "Ġchar": 3246,
      "Ġshowing": 3247,
      "ĠRose": 3248,
      "Ġmeans": 3249,
      "Ġattic": 3250,
      "Ġtomato": 3251,
      "Ġstraw": 3252,
      "Ġpants": 3253,
      "Ġfierce": 3254,
      "na": 3255,
      "time": 3256,
      "wards": 3257,
      "ready": 3258,
      "Ġsoar": 3259,
      "ola": 3260,
      "Ġdiamond": 3261,
      "Ġreminded": 3262,
      "Ġwhispered": 3263,
      "vice": 3264,
      "Ġtimes": 3265,
      "ines": 3266,
      "inal": 3267,
      "Ġwake": 3268,
      "Ġjack": 3269,
      "Ġalready": 3270,
      "Ġsword": 3271,
      "Ġleaving": 3272,
      "Ġcircles": 3273,
      "Ġterrible": 3274,
      "lies": 3275,
      "Ġwashed": 3276,
      "ately": 3277,
      "Ġnorm": 3278,
      "Ġyet": 3279,
      "Ġstamp": 3280,
      "Ġlibr": 3281,
      "iable": 3282,
      "Ġcleaning": 3283,
      "Ġreliable": 3284,
      "apping": 3285,
      "Ġpirate": 3286,
      "Ġflashlight": 3287,
      "Ġsuggested": 3288,
      "Ġelderly": 3289,
      "keeper": 3290,
      "Ġindependent": 3291,
      "inary": 3292,
      "Ġcam": 3293,
      "anger": 3294,
      "iginal": 3295,
      "Ġstupid": 3296,
      "Ġplayful": 3297,
      "Ġgoat": 3298,
      "Ġext": 3299,
      "Ġmeal": 3300,
      "ĠYour": 3301,
      "ĠLittle": 3302,
      "ctus": 3303,
      "ĠNemo": 3304,
      "Ġdead": 3305,
      "Ġbrightly": 3306,
      "Ġcompass": 3307,
      "ĠTweetie": 3308,
      "Ġstubb": 3309,
      "Ġcooking": 3310,
      "Ġgasped": 3311,
      "Spot": 3312,
      "eorge": 3313,
      "etit": 3314,
      "Ġspun": 3315,
      "Ġpost": 3316,
      "Ġcheap": 3317,
      "Ġarrow": 3318,
      "Ġresc": 3319,
      "Ġnuts": 3320,
      "Ġsunflower": 3321,
      "Ġfresh": 3322,
      "Ġcards": 3323,
      "Ġstairs": 3324,
      "Ġknock": 3325,
      "ĠWhile": 3326,
      "Ġbald": 3327,
      "Ġpatch": 3328,
      "Ġcompetit": 3329,
      "Ġcactus": 3330,
      "Ġbatter": 3331,
      "Ġdelighted": 3332,
      "Ġseeds": 3333,
      "Ġdestro": 3334,
      "Ġescape": 3335,
      "Ġnormal": 3336,
      "Ġber": 3337,
      "Ġlocked": 3338,
      "Ġspace": 3339,
      "Ġoriginal": 3340,
      "Ġoffice": 3341,
      "Ġpoured": 3342,
      "Ġstubborn": 3343,
      "Ġberries": 3344,
      "See": 3345,
      "Ġbump": 3346,
      "isk": 3347,
      "Ġbeet": 3348,
      "Ġref": 3349,
      "Ġthemselves": 3350,
      "Ġbloom": 3351,
      "Ġlearning": 3352,
      "oby": 3353,
      "Ġexplored": 3354,
      "Ġzip": 3355,
      "ĠAlice": 3356,
      "Ġsuccessful": 3357,
      "Em": 3358,
      "Ġstat": 3359,
      "uring": 3360,
      "Ġsne": 3361,
      "ÅĵLet": 3362,
      "Ġjoined": 3363,
      "Ġzipp": 3364,
      "Ġprep": 3365,
      "Ġguard": 3366,
      "Ġwiped": 3367,
      "lev": 3368,
      "Ġbeak": 3369,
      "Ġstumbled": 3370,
      "Ġshone": 3371,
      "illa": 3372,
      "Ġexcitedly": 3373,
      "Ġskip": 3374,
      "Ġsniff": 3375,
      "ĠCl": 3376,
      "ipe": 3377,
      "Ġsalad": 3378,
      "Ġdolphin": 3379,
      "Ġcamera": 3380,
      "aby": 3381,
      "ndpa": 3382,
      "Ġsock": 3383,
      "Ġspilled": 3384,
      "Ġchanged": 3385,
      "Ġdelicate": 3386,
      "Ġmetal": 3387,
      "oomy": 3388,
      "Ġcircle": 3389,
      "Ġkicked": 3390,
      "Ġsolve": 3391,
      "Ġvalu": 3392,
      "Ġhelm": 3393,
      "Ġextra": 3394,
      "Ġing": 3395,
      "Ġcarp": 3396,
      "Ġways": 3397,
      "ĠPolly": 3398,
      "Ġfright": 3399,
      "Ġsearching": 3400,
      "Ġcollar": 3401,
      "Ġwarned": 3402,
      "Ġprize": 3403,
      "Ġregular": 3404,
      "com": 3405,
      "dom": 3406,
      "Ġthu": 3407,
      "Ġrep": 3408,
      "ĠWh": 3409,
      "ĠFin": 3410,
      "Ġenorm": 3411,
      "Ġdoesn": 3412,
      "Ġwindows": 3413,
      "redient": 3414,
      "Ġwrap": 3415,
      "Ġhammer": 3416,
      "Ġcompassion": 3417,
      "Ġingredient": 3418,
      "Ġenormous": 3419,
      "corn": 3420,
      "Ġcush": 3421,
      "Ġpow": 3422,
      "ilty": 3423,
      "Ġbees": 3424,
      "ief": 3425,
      "Ġcoco": 3426,
      "Ġswe": 3427,
      "Ġstranger": 3428,
      "berry": 3429,
      "ĠWhenever": 3430,
      "Ġpengu": 3431,
      "Ġguilty": 3432,
      "Ġpackage": 3433,
      "Ġimagined": 3434,
      "Ġparrot": 3435,
      "Ġadmired": 3436,
      "Ġcocoa": 3437,
      "ray": 3438,
      "Ġfu": 3439,
      "aroo": 3440,
      "atter": 3441,
      "llie": 3442,
      "Ġforth": 3443,
      "Ġotter": 3444,
      "Ġtrop": 3445,
      "Ġhandle": 3446,
      "Ġadvice": 3447,
      "âĤ¬âĢ": 3448,
      "cod": 3449,
      "Ġopens": 3450,
      "Ġsteal": 3451,
      "gging": 3452,
      "angaroo": 3453,
      "Ġimpress": 3454,
      "Ġfountain": 3455,
      "Ġfrag": 3456,
      "Ġkangaroo": 3457,
      "Ġclay": 3458,
      "ĠLook": 3459,
      "Ġbrace": 3460,
      "Ġchose": 3461,
      "Ġparade": 3462,
      "Ġvaluable": 3463,
      "Ġingredients": 3464,
      "While": 3465,
      "loo": 3466,
      "Ġstage": 3467,
      "Ġliz": 3468,
      "ĠAlex": 3469,
      "Ġcareless": 3470,
      "Ġvi": 3471,
      "Ġsett": 3472,
      "uper": 3473,
      "Ġdesign": 3474,
      "Ġcelebrate": 3475,
      "Ġcricket": 3476,
      "Ġcrocod": 3477,
      "Ġtrophy": 3478,
      "Ġbri": 3479,
      "Ġrushed": 3480,
      "Ġfinding": 3481,
      "Ġtrunk": 3482,
      "ĠPe": 3483,
      "ache": 3484,
      "Ġstops": 3485,
      "Ġpige": 3486,
      "Ġearly": 3487,
      "Ġthinking": 3488,
      "Ġpopcorn": 3489,
      "Ġmovie": 3490,
      "Ġson": 3491,
      "Ġcity": 3492,
      "Ġgum": 3493,
      "Ġnature": 3494,
      "Ġthirst": 3495,
      "Ġhero": 3496,
      "!\".": 3497,
      "Ġleop": 3498,
      "Ġenv": 3499,
      "Ġboats": 3500,
      "Ġcomplet": 3501,
      "Ġshape": 3502,
      "Ġcandle": 3503,
      "Ġgraceful": 3504,
      "Ġdestroy": 3505,
      "Ġstatue": 3506,
      "Ġflex": 3507,
      "ĠBuddy": 3508,
      "alk": 3509,
      "apa": 3510,
      "Ġtrump": 3511,
      "Ġtravel": 3512,
      "Ġstickers": 3513,
      "Ġcounting": 3514,
      "Ġsparkled": 3515,
      "Ġhumble": 3516,
      "Ġbeetle": 3517,
      "Ġbarn": 3518,
      "igent": 3519,
      "ĠFr": 3520,
      "Ġintell": 3521,
      "Ġimpat": 3522,
      "Ġtowers": 3523,
      "Ġbelt": 3524,
      "ations": 3525,
      "Ġbarber": 3526,
      "Ġspring": 3527,
      "Ġpeeked": 3528,
      "Ġcharming": 3529,
      "Ġfrightened": 3530,
      "Ġthirsty": 3531,
      "Ġtied": 3532,
      "Ġlaser": 3533,
      "arian": 3534,
      "Ġnames": 3535,
      "Ġpepper": 3536,
      "Ġenc": 3537,
      "ement": 3538,
      "Ġarg": 3539,
      "Ġreading": 3540,
      "Ġveil": 3541,
      "Ġobject": 3542,
      "Ġfingers": 3543,
      "Ġtoast": 3544,
      "Ġhive": 3545,
      "Ġwaff": 3546,
      "Ġled": 3547,
      "Ġload": 3548,
      "Ġeng": 3549,
      "Ġmaze": 3550,
      "Ġperm": 3551,
      "Ġrestaur": 3552,
      "Ġresist": 3553,
      "Ġhurry": 3554,
      "Ġmagnet": 3555,
      "Ġfragile": 3556,
      "Ġflexible": 3557,
      "Ġimpatient": 3558,
      "Ġrestaurant": 3559,
      "Ġmis": 3560,
      "Ġshark": 3561,
      "Ġrece": 3562,
      "Ġraced": 3563,
      "Ġhairy": 3564,
      "Ġsleeping": 3565,
      "Ġmissing": 3566,
      "Ġquestion": 3567,
      "Ġlizard": 3568,
      "Ġintelligent": 3569,
      "gust": 3570,
      "Ġhay": 3571,
      "Ġrug": 3572,
      "Ġrefused": 3573,
      "Ġolder": 3574,
      "Ġclock": 3575,
      "Ġcomb": 3576,
      "Ġdeliver": 3577,
      "Ġpilot": 3578,
      "Ġcarpet": 3579,
      "Ġsym": 3580,
      "Ġtooth": 3581,
      "Ġbin": 3582,
      "ince": 3583,
      "Ġph": 3584,
      "Ġur": 3585,
      "Ġalert": 3586,
      "robe": 3587,
      "Ġproudly": 3588,
      "Ġdisgust": 3589,
      "Ġtelling": 3590,
      "Ġcrocodile": 3591,
      "Ġtrumpet": 3592,
      "eer": 3593,
      "Ġsudden": 3594,
      "Ġhedge": 3595,
      "Ġped": 3596,
      "ision": 3597,
      "ĠSm": 3598,
      "anny": 3599,
      "orant": 3600,
      "llip": 3601,
      "Ġreind": 3602,
      "ict": 3603,
      "iches": 3604,
      "Ġfriendship": 3605,
      "Ġmem": 3606,
      "Ġpebble": 3607,
      "Ġmoder": 3608,
      "cycle": 3609,
      "Ġrespectful": 3610,
      "Ġbracelet": 3611,
      "Ġpigeon": 3612,
      "llipop": 3613,
      "awn": 3614,
      "cu": 3615,
      "Ġsend": 3616,
      "Ġmay": 3617,
      "Ġpurse": 3618,
      "Ġhalf": 3619,
      "Ġthief": 3620,
      "Ġbean": 3621,
      "Ġlollipop": 3622,
      "Ġimpro": 3623,
      "Ġunk": 3624,
      "bol": 3625,
      "Ġhung": 3626,
      "Ġgrowing": 3627,
      "Ġpotato": 3628,
      "Ġordinary": 3629,
      "Ġimpressive": 3630,
      "Ġreindeer": 3631,
      "gest": 3632,
      "iv": 3633,
      "Ġax": 3634,
      "Ġpump": 3635,
      "Ġstation": 3636,
      "Ġbiggest": 3637,
      "Ġjug": 3638,
      "Ġmush": 3639,
      "ĠElla": 3640,
      "Ġsorts": 3641,
      "ÅĵYes": 3642,
      "Ġtrains": 3643,
      "Ġrules": 3644,
      "Ġwheat": 3645,
      "Ġmailbox": 3646,
      "Ġcostum": 3647,
      "Ġsymbol": 3648,
      "Ġmodern": 3649,
      "Ġmushroom": 3650,
      "Ġdug": 3651,
      "Ġshiver": 3652,
      "Ġbirdie": 3653,
      "Ġflour": 3654,
      "Ġending": 3655,
      "Ġtrash": 3656,
      "Ġholds": 3657,
      "ĠKim": 3658,
      "Ġattract": 3659,
      "host": 3660,
      "Ġdiscover": 3661,
      "Ġfootball": 3662,
      "ÅĵLetÃ¢": 3663,
      "comfort": 3664,
      "nown": 3665,
      "Ġwitch": 3666,
      "Ġbase": 3667,
      "Ġgor": 3668,
      "Ġumb": 3669,
      "Ġrepe": 3670,
      "Ġallowed": 3671,
      "Ġleash": 3672,
      "Ġchain": 3673,
      "Ġhose": 3674,
      "Ġcats": 3675,
      "Ġunpack": 3676,
      "Ġbreat": 3677,
      "Ġbrothers": 3678,
      "Ġsandwiches": 3679,
      "Ġignorant": 3680,
      "Ġharmless": 3681,
      "Ġumbre": 3682,
      "cope": 3683,
      "Ġtur": 3684,
      "Ġtem": 3685,
      "Ġwing": 3686,
      "Ġmop": 3687,
      "Ġoat": 3688,
      "Ġshocked": 3689,
      "ĠMike": 3690,
      "ugged": 3691,
      "iew": 3692,
      "used": 3693,
      "ÅĵIt": 3694,
      "Ġuncomfort": 3695,
      "Ġcrazy": 3696,
      "Ġsurf": 3697,
      "Ġuncomfortable": 3698,
      "Go": 3699,
      "bled": 3700,
      "Ġcur": 3701,
      "Ġmask": 3702,
      "ĠDave": 3703,
      "Ġview": 3704,
      "Ġraven": 3705,
      "ÅĵWhat": 3706,
      "Ġpersist": 3707,
      "Ġslides": 3708,
      "ĠSnow": 3709,
      "Ġjacket": 3710,
      "Ġenvious": 3711,
      "Ġencou": 3712,
      "io": 3713,
      "Ġsuper": 3714,
      "Ġghost": 3715,
      "Ġsauce": 3716,
      "imney": 3717,
      "Ġshield": 3718,
      "Ġanx": 3719,
      "ĠAre": 3720,
      "opus": 3721,
      "Ġscatter": 3722,
      "Ġstarts": 3723,
      "Ġchimney": 3724,
      "ctopus": 3725,
      "ÅĵThat": 3726,
      "Ġbrighter": 3727,
      "Ġshoe": 3728,
      "Ġplaced": 3729,
      "Ġspoke": 3730,
      "Ġfilm": 3731,
      "Ġcompassionate": 3732,
      "Ġaxe": 3733,
      "Ġgorilla": 3734,
      "Ġturkey": 3735,
      "ĠToby": 3736,
      "Ġoctopus": 3737,
      "Ġnail": 3738,
      "ecause": 3739,
      "Ġlab": 3740,
      "Ġtray": 3741,
      "Ġsnuggled": 3742,
      "ĠPapa": 3743,
      "Ġpainter": 3744,
      "Ġcardboard": 3745,
      "Ġspeed": 3746,
      "Ġavo": 3747,
      "Ġhunter": 3748,
      "Ġthunder": 3749,
      "Ġharsh": 3750,
      "Ġcamp": 3751,
      "Ġguit": 3752,
      "Ġyawn": 3753,
      "aled": 3754,
      "Ġreco": 3755,
      "tern": 3756,
      "Ġlistening": 3757,
      "Ġshells": 3758,
      "iskers": 3759,
      "Ġleopard": 3760,
      "Ġphot": 3761,
      "Ġdisgusting": 3762,
      "Ġwire": 3763,
      "Ġbeep": 3764,
      "ado": 3765,
      "htub": 3766,
      "Ġchasing": 3767,
      "Ġvest": 3768,
      "Ġanywhere": 3769,
      "Ġcreate": 3770,
      "Ġsquash": 3771,
      "Ġbutterflies": 3772,
      "Ġmicrop": 3773,
      "Ġsilver": 3774,
      "ophie": 3775,
      "Ġviol": 3776,
      "Ġengine": 3777,
      "ĠSmith": 3778,
      "Ġmicrophone": 3779,
      "gn": 3780,
      "ience": 3781,
      "rn": 3782,
      "render": 3783,
      "Ġcell": 3784,
      "Ġgoal": 3785,
      "Ġvine": 3786,
      "Ġtrap": 3787,
      "Ġjolly": 3788,
      "Ġacorn": 3789,
      "Ġtricks": 3790,
      "Ġcooler": 3791,
      "osie": 3792,
      "Ġbathtub": 3793,
      "Ġcarrying": 3794,
      "Ġanxious": 3795,
      "Ġmill": 3796,
      "Ġneat": 3797,
      "Ġnicely": 3798,
      "Ġcreatures": 3799,
      "Ġenth": 3800,
      "Ġstirred": 3801,
      "Ġdecorate": 3802,
      "Ġwishes": 3803,
      "Ġhelmet": 3804,
      "Ġunknown": 3805,
      "ud": 3806,
      "Ġtire": 3807,
      "Ġtoil": 3808,
      "Ġoy": 3809,
      "iron": 3810,
      "Ġdrawer": 3811,
      "Ġswinging": 3812,
      "Ġwheels": 3813,
      "Ġsurrender": 3814,
      "Alice": 3815,
      "Ġviolin": 3816,
      "Give": 3817,
      "Yay": 3818,
      "ikes": 3819,
      "Ġahead": 3820,
      "Ġsink": 3821,
      "Ġbent": 3822,
      "Ġfat": 3823,
      "ĠTr": 3824,
      "imi": 3825,
      "ĠHere": 3826,
      "ric": 3827,
      "Ġseco": 3828,
      "Ġcrow": 3829,
      "Ġpiano": 3830,
      "ĠGrandpa": 3831,
      "Ġletters": 3832,
      "Ġorganize": 3833,
      "Ġstretched": 3834,
      "Ġmotorcycle": 3835,
      "Ġattractive": 3836,
      "Ġpersistent": 3837,
      "Ġenthus": 3838,
      "Ġsecond": 3839,
      "noon": 3840,
      "ĠU": 3841,
      "Ġhook": 3842,
      "Ġgir": 3843,
      "Ġshine": 3844,
      "Ġshort": 3845,
      "Ġshaking": 3846,
      "Ġsadly": 3847,
      "Ġputting": 3848,
      "ĠcouldnÃ¢": 3849,
      "Ġbadly": 3850,
      "Ġuncle": 3851,
      "Ġafternoon": 3852,
      "Ġpretending": 3853,
      "Ġdistant": 3854,
      "Ġpracticed": 3855,
      "Ġtwirled": 3856,
      "Ġzipper": 3857,
      "Ġcushion": 3858,
      "Ġumbrella": 3859,
      "Mary": 3860,
      "gs": 3861,
      "Ġoak": 3862,
      "Ġgym": 3863,
      "icop": 3864,
      "Ġgloomy": 3865,
      "Ġshouts": 3866,
      "Ġforgave": 3867,
      "Ġbehave": 3868,
      "Ġtrick": 3869,
      "Ġpattern": 3870,
      "Ġsailor": 3871,
      "Ġgifted": 3872,
      "Ġbandage": 3873,
      "Ġpasta": 3874,
      "Ġhelicop": 3875,
      "ĠWhiskers": 3876,
      "Ġrecogn": 3877,
      "Ġhelicopter": 3878,
      "ef": 3879,
      "ses": 3880,
      "Ġbicy": 3881,
      "Ġitself": 3882,
      "Ġshel": 3883,
      "ices": 3884,
      "ĠJerry": 3885,
      "Ġneedle": 3886,
      "Ġbeauty": 3887,
      "Ġjumps": 3888,
      "Ġmessage": 3889,
      "Ġcrane": 3890,
      "lcano": 3891,
      "Ġneighbour": 3892,
      "Ġguitar": 3893,
      "Ġten": 3894,
      "uth": 3895,
      "urb": 3896,
      "Ġlaund": 3897,
      "ĠLola": 3898,
      "ips": 3899,
      "ĠGive": 3900,
      "Ġcourage": 3901,
      "Ġpulls": 3902,
      "Ġdriving": 3903,
      "ggy": 3904,
      "Ġmonkeys": 3905,
      "Ġdisturb": 3906,
      "cream": 3907,
      "ocer": 3908,
      "ubby": 3909,
      "Ġwife": 3910,
      "erable": 3911,
      "arry": 3912,
      "ĠMark": 3913,
      "Ġhelpless": 3914,
      "Ġchubby": 3915,
      "Ġpole": 3916,
      "Ġquite": 3917,
      "Ġlions": 3918,
      "Ġscrew": 3919,
      "hinocer": 3920,
      "Ġtoilet": 3921,
      "hinoceros": 3922,
      "Bye": 3923,
      "ron": 3924,
      "ites": 3925,
      "Ġshade": 3926,
      "Ġcane": 3927,
      "ĠWhere": 3928,
      "ĠEventually": 3929,
      "Ġpeek": 3930,
      "Ġpup": 3931,
      "Ġtrack": 3932,
      "Ġjokes": 3933,
      "aches": 3934,
      "Ġgiggle": 3935,
      "Ġbarks": 3936,
      "Ġmiserable": 3937,
      "ĠSnowy": 3938,
      "Ġlaundry": 3939,
      "zzy": 3940,
      "Ġsent": 3941,
      "Ġhoop": 3942,
      "Ġcere": 3943,
      "Ġpad": 3944,
      "Ġpine": 3945,
      "Ġins": 3946,
      "Ġshut": 3947,
      "Ġrose": 3948,
      "Ġfinds": 3949,
      "Ġholes": 3950,
      "Ġclimbing": 3951,
      "ĠGeorge": 3952,
      "Ġfireman": 3953,
      "ailable": 3954,
      "Ġfearful": 3955,
      "..": 3956,
      "Little": 3957,
      "gen": 3958,
      "hood": 3959,
      "year": 3960,
      "Ġsize": 3961,
      "Ġrhinoceros": 3962,
      "Ġreef": 3963,
      "Ġscold": 3964,
      "Ġroared": 3965,
      "ucked": 3966,
      "Ġtap": 3967,
      "Ġpeach": 3968,
      "Ġtear": 3969,
      "Ġsoftly": 3970,
      "Ġpapers": 3971,
      "Ġsupport": 3972,
      "Ġsteps": 3973,
      "Ġavailable": 3974,
      "Ġbicycle": 3975,
      "ci": 3976,
      "ffe": 3977,
      "shed": 3978,
      "te": 3979,
      "Ġaw": 3980,
      "Ġdust": 3981,
      "Ġdess": 3982,
      "Ġeither": 3983,
      "seum": 3984,
      "ills": 3985,
      "ummer": 3986,
      "Ġchance": 3987,
      "Ġsticker": 3988,
      "ĠKate": 3989,
      "Ġpoint": 3990,
      "Ġadmire": 3991,
      "ĠMaria": 3992,
      "Ġlibrary": 3993,
      "Ġcompetitive": 3994,
      "Ġrepair": 3995,
      "ffee": 3996,
      "cast": 3997,
      "ccol": 3998,
      "Ġcurt": 3999,
      "Ġink": 4000,
      "Ġrag": 4001,
      "Ġstack": 4002,
      "Ġstared": 4003,
      "ceed": 4004,
      "Ġfort": 4005,
      "Ġtruth": 4006,
      "Ġener": 4007,
      "Ġglove": 4008,
      "ĠRosie": 4009,
      "Ġcountry": 4010,
      "Ġjourn": 4011,
      "Ġradio": 4012,
      "Grandma": 4013,
      "ĠBrownie": 4014,
      "Ġfrowned": 4015,
      "ccoli": 4016,
      "Ġcurtain": 4017,
      "Ġiron": 4018,
      "Ġbet": 4019,
      "erc": 4020,
      "Ġmild": 4021,
      "stairs": 4022,
      "Ġnote": 4023,
      "illie": 4024,
      "Ġprun": 4025,
      "Ġmuseum": 4026,
      "Ġanyway": 4027,
      "Ġorder": 4028,
      "Ġcompl": 4029,
      "Ġcheek": 4030,
      "Ġvolcano": 4031,
      "Ġpushes": 4032,
      "ĠJoey": 4033,
      "Ġvisited": 4034,
      "Ġcupboard": 4035,
      "Ġtreasures": 4036,
      "Ġtroubled": 4037,
      "Ġbounced": 4038,
      "Ġriding": 4039,
      "Jenny": 4040,
      "Ġdessert": 4041,
      "oot": 4042,
      "Ġdive": 4043,
      "irit": 4044,
      "ckey": 4045,
      "ooped": 4046,
      "Ġreve": 4047,
      "Ġboots": 4048,
      "ĠWould": 4049,
      "Ġgrapes": 4050,
      "Ġhockey": 4051,
      "sely": 4052,
      "Ġdishes": 4053,
      "Ġappl": 4054,
      "Ġappre": 4055,
      "Ġsandcast": 4056,
      "Ġbreaks": 4057,
      "Ġcups": 4058,
      "Ġshopkeeper": 4059,
      "Ġpopular": 4060,
      "Ġspeak": 4061,
      "Ġjournal": 4062,
      "Because": 4063,
      "cut": 4064,
      "ibb": 4065,
      "Ġstrugg": 4066,
      "Ġpowder": 4067,
      "Ġappreci": 4068,
      "ĠSh": 4069,
      "Ġexerc": 4070,
      "Ġclapping": 4071,
      "Ġcoffee": 4072,
      "Ġhanded": 4073,
      "uct": 4074,
      "Ġnowhere": 4075,
      "Ġdisag": 4076,
      "Ġdeaf": 4077,
      "Ġart": 4078,
      "Ġzeb": 4079,
      "Ġrubb": 4080,
      "Ġmixer": 4081,
      "Ġcolours": 4082,
      "Ġgrabs": 4083,
      "Ġsucceed": 4084,
      "Ġspinning": 4085,
      "Ġstretch": 4086,
      "Ġzebra": 4087,
      "eath": 4088,
      "lb": 4089,
      "night": 4090,
      "Ġhut": 4091,
      "Ġfurt": 4092,
      "Ġdough": 4093,
      "Ġpun": 4094,
      "Ġpage": 4095,
      "orable": 4096,
      "Ġhappier": 4097,
      "Ġkay": 4098,
      "ĠMimi": 4099,
      "Ġspirit": 4100,
      "Ġbackpack": 4101,
      "Ġswamp": 4102,
      "Ġclosely": 4103,
      "Ġbulb": 4104,
      "Ġchecked": 4105,
      "Ġbroccoli": 4106,
      "Ġhoping": 4107,
      "Ġsalt": 4108,
      "Ġmodest": 4109,
      "Ġcomplete": 4110,
      "Ġants": 4111,
      "anic": 4112,
      "ĠHelp": 4113,
      "Ġseal": 4114,
      "Ġjet": 4115,
      "play": 4116,
      "Ġslipp": 4117,
      "ĠAndy": 4118,
      "Ġgiven": 4119,
      "Ġchickens": 4120,
      "Ġcartoon": 4121,
      "Ġrescue": 4122,
      "Ġsneak": 4123,
      "Ġcereal": 4124,
      "Ġinsist": 4125,
      "Ġsummer": 4126,
      "inking": 4127,
      "Ġpony": 4128,
      "ĠTony": 4129,
      "chanic": 4130,
      "Ġmechanic": 4131,
      "Ġadorable": 4132,
      "Ġdisplay": 4133,
      "Ġtripped": 4134,
      "Ġlands": 4135,
      "Ġdiary": 4136,
      "Ġstuffed": 4137,
      "Ġfurther": 4138,
      "par": 4139,
      "Ġtorn": 4140,
      "Ġmen": 4141,
      "kelet": 4142,
      "Ġweep": 4143,
      "Ġshadow": 4144,
      "Ġsepar": 4145,
      "Ġspell": 4146,
      "Benny": 4147,
      "Ġframe": 4148,
      "Ġairport": 4149,
      "Ġwallet": 4150,
      "ĠRemy": 4151,
      "Ġshrimp": 4152,
      "Ġbalan": 4153,
      "Ġpaws": 4154,
      "Ġfilthy": 4155,
      "Ġsweater": 4156,
      "Ġfive": 4157,
      "ison": 4158,
      "arnt": 4159,
      "Ġherb": 4160,
      "ament": 4161,
      "Ġhadn": 4162,
      "stic": 4163,
      "elery": 4164,
      "Ġlearnt": 4165,
      "ĠEverything": 4166,
      "Ġfrogs": 4167,
      "ĠGrace": 4168,
      "Ġlemonade": 4169,
      "âĤ¬âĢľ": 4170,
      "iest": 4171,
      "Ġtheater": 4172,
      "Ġlang": 4173,
      "Ġweather": 4174,
      "Ġnoteb": 4175,
      "Ġstarting": 4176,
      "iastic": 4177,
      "Ġbubble": 4178,
      "Ġdancer": 4179,
      "Ġhopes": 4180,
      "Ġdrops": 4181,
      "Ġenthusiastic": 4182,
      "Ġlangu": 4183,
      "Ġnotebook": 4184,
      "ser": 4185,
      "ube": 4186,
      "Ġskelet": 4187,
      "Ġsomewhere": 4188,
      "Ġopera": 4189,
      "Ġraft": 4190,
      "Ġshouldn": 4191,
      "ĠRo": 4192,
      "Ġpushing": 4193,
      "Ġmarched": 4194,
      "Ġtemp": 4195,
      "Ġwool": 4196,
      "Ġbikes": 4197,
      "Ġsaus": 4198,
      "Ġgolf": 4199,
      "Ġmuff": 4200,
      "Ġquar": 4201,
      "ĠdonÃ¢": 4202,
      "Ġteleph": 4203,
      "astic": 4204,
      "Ġcryst": 4205,
      "Ġdrawings": 4206,
      "Ġpressed": 4207,
      "Ġrolling": 4208,
      "Ġincl": 4209,
      "Ġzoomed": 4210,
      "Ġunlock": 4211,
      "Ġtelephone": 4212,
      "nament": 4213,
      "Ġlid": 4214,
      "any": 4215,
      "ĠBear": 4216,
      "Ġreward": 4217,
      "Ġallig": 4218,
      "Ġmeas": 4219,
      "Ġornament": 4220,
      "Ġended": 4221,
      "Ġraining": 4222,
      "Ġhaircut": 4223,
      "Ġsplit": 4224,
      "Ġcomput": 4225,
      "Ġpolish": 4226,
      "Ġpaid": 4227,
      "Ġprov": 4228,
      "Ġmistakes": 4229,
      "Ġcooked": 4230,
      "Ġoyster": 4231,
      "yer": 4232,
      "heart": 4233,
      "Ġcomet": 4234,
      "Ġpair": 4235,
      "Ġol": 4236,
      "Ġnobody": 4237,
      "Ġsmells": 4238,
      "Ġattach": 4239,
      "Ġpirates": 4240,
      "Ġcrib": 4241,
      "Ġskeleton": 4242,
      "aked": 4243,
      "loe": 4244,
      "Ġtube": 4245,
      "Ġhar": 4246,
      "Ġwags": 4247,
      "Ġluck": 4248,
      "Ġstom": 4249,
      "Ġswung": 4250,
      "Ġsort": 4251,
      "ected": 4252,
      "Ġcounter": 4253,
      "Ġmarry": 4254,
      "Ġexper": 4255,
      "Ġvalue": 4256,
      "Ġaccepted": 4257,
      "Ġleaned": 4258,
      "ges": 4259,
      "ĠSandy": 4260,
      "una": 4261,
      "Ġmeat": 4262,
      "Ġcube": 4263,
      "Ġuniver": 4264,
      "Ġdiscu": 4265,
      "Ġrestless": 4266,
      "ctory": 4267,
      "Ġnapkin": 4268,
      "Ġthrowing": 4269,
      "Ġpresents": 4270,
      "Ġpassport": 4271,
      "Ġbarking": 4272,
      "Ġhuman": 4273,
      "Ġkayak": 4274,
      "Ġcelery": 4275,
      "Ġpor": 4276,
      "ĠitÃ¢": 4277,
      "Ġthumb": 4278,
      "Ġfactory": 4279,
      "Ġunh": 4280,
      "Ġthanks": 4281,
      "Ġthread": 4282,
      "Ġthrows": 4283,
      "Ġobser": 4284,
      "Ġpinch": 4285,
      "Ġsoldier": 4286,
      "If": 4287,
      "come": 4288,
      "Ġmama": 4289,
      "Ġrot": 4290,
      "Ġknob": 4291,
      "Ġfeelings": 4292,
      "ĠdidnÃ¢": 4293,
      "aud": 4294,
      "inky": 4295,
      "Ġsandbox": 4296,
      "Ġimagination": 4297,
      "Ġsupply": 4298,
      "affe": 4299,
      "Ġfishing": 4300,
      "Ġlawyer": 4301,
      "Ġalligator": 4302,
      "ler": 4303,
      "was": 4304,
      "inarian": 4305,
      "Ġlend": 4306,
      "Ġwaste": 4307,
      "ĠSee": 4308,
      "Ġyach": 4309,
      "Ġribb": 4310,
      "icer": 4311,
      "Ġknot": 4312,
      "Ġfauc": 4313,
      "Ġfalling": 4314,
      "eterinarian": 4315,
      "Ġbelongs": 4316,
      "arlie": 4317,
      "Ġdishwas": 4318,
      "Ġenergy": 4319,
      "Ġslippery": 4320,
      "Ġfaucet": 4321,
      "Ġdishwasher": 4322,
      "tress": 4323,
      "Ġsle": 4324,
      "Ġsir": 4325,
      "iling": 4326,
      "Ġonion": 4327,
      "hero": 4328,
      "Ġkitty": 4329,
      "Ġnews": 4330,
      "Ġveterinarian": 4331,
      "Ġshoulder": 4332,
      "Ġmattress": 4333,
      "Together": 4334,
      "Ġsuperhero": 4335,
      "Ġshelter": 4336,
      "Ġapplaud": 4337,
      "Ġyacht": 4338,
      "azz": 4339,
      "drobe": 4340,
      "Ġfurn": 4341,
      "iture": 4342,
      "Ġlumber": 4343,
      "Ġhall": 4344,
      "stead": 4345,
      "ĠBet": 4346,
      "ĠBaby": 4347,
      "Ġalarm": 4348,
      "ĠWill": 4349,
      "Ġchirp": 4350,
      "Ġpoked": 4351,
      "Ġpoem": 4352,
      "Ġfields": 4353,
      "Ġsigns": 4354,
      "Ġwinter": 4355,
      "Ġwardrobe": 4356,
      "Ġcelebrated": 4357,
      "Ġglowing": 4358,
      "Ġapologized": 4359,
      "Ġfuel": 4360,
      "Ġwaffle": 4361,
      "Ġimprove": 4362,
      "Ġavoc": 4363,
      "Ġgiraffe": 4364,
      "Ġquarrel": 4365,
      "Ġfurniture": 4366,
      "bor": 4367,
      "ium": 4368,
      "lid": 4369,
      "Ġpand": 4370,
      "Ġvide": 4371,
      "Ġpoke": 4372,
      "bbie": 4373,
      "Ġfog": 4374,
      "Ġsweetheart": 4375,
      "Everyone": 4376,
      "Ġunhappy": 4377,
      "gie": 4378,
      "sit": 4379,
      "Ġsuff": 4380,
      "edy": 4381,
      "Ġbur": 4382,
      "Ġfle": 4383,
      "ising": 4384,
      "ĠSophie": 4385,
      "Ġflies": 4386,
      "Ġcham": 4387,
      "place": 4388,
      "ÅĵYou": 4389,
      "ĠPat": 4390,
      "Ġpress": 4391,
      "Ġvend": 4392,
      "Ġattention": 4393,
      "ipping": 4394,
      "Ġjeep": 4395,
      "Ġchairs": 4396,
      "Ġwipe": 4397,
      "Ġregret": 4398,
      "ween": 4399,
      "Ġcostume": 4400,
      "Ġbaseball": 4401,
      "Ġbetween": 4402,
      "Ġtut": 4403,
      "Ġtherm": 4404,
      "Ġplayer": 4405,
      "Ġshakes": 4406,
      "ometer": 4407,
      "Ġworth": 4408,
      "Ġswitch": 4409,
      "Ġvroom": 4410,
      "Ġholid": 4411,
      "Ġexplain": 4412,
      "Ġfollows": 4413,
      "ĠNext": 4414,
      "Ġlightning": 4415,
      "Ġpoints": 4416,
      "Ġperfectly": 4417,
      "Ġgolden": 4418,
      "Ġexamine": 4419,
      "Ġpenguin": 4420,
      "Ġphoto": 4421,
      "Ġharbor": 4422,
      "Ġthermometer": 4423,
      "Ġholiday": 4424,
      "az": 4425,
      "bul": 4426,
      "scope": 4427,
      "Ġble": 4428,
      "inked": 4429,
      "Ġgro": 4430,
      "Ġinf": 4431,
      "utty": 4432,
      "Ġsoil": 4433,
      "Ġrever": 4434,
      "Ġmakeup": 4435,
      "roscope": 4436,
      "Ġgrin": 4437,
      "reeze": 4438,
      "Ġblueberries": 4439,
      "Ġmarried": 4440,
      "Ġimagine": 4441,
      "Ġcows": 4442,
      "Ġflutter": 4443,
      "Ġlively": 4444,
      "Ġblowing": 4445,
      "Ġmicroscope": 4446,
      "Ch": 4447,
      "Next": 4448,
      "aff": 4449,
      "Ġtub": 4450,
      "Ġpipe": 4451,
      "chair": 4452,
      "ores": 4453,
      "Ġclub": 4454,
      "Ġdoggy": 4455,
      "Ġlotion": 4456,
      "mand": 4457,
      "Ġsunset": 4458,
      "Ġbuzz": 4459,
      "Ġwriting": 4460,
      "Ġpetals": 4461,
      "Inside": 4462,
      "Ġcomputer": 4463,
      "Ġporch": 4464,
      "Ann": 4465,
      "ccer": 4466,
      "lass": 4467,
      "ues": 4468,
      "Ġpra": 4469,
      "Ġpur": 4470,
      "ories": 4471,
      "Ġinse": 4472,
      "Ġsoccer": 4473,
      "Ġseas": 4474,
      "Ġspear": 4475,
      "Ġknown": 4476,
      "ssible": 4477,
      "Ġpear": 4478,
      "ups": 4479,
      "Ġkingdom": 4480,
      "Ġsplashing": 4481,
      "Ġburned": 4482,
      "Ġstraight": 4483,
      "Ġhanging": 4484,
      "Ġcabinet": 4485,
      "ĠClara": 4486,
      "Ġscolded": 4487,
      "Ġcrystal": 4488,
      "Ġvendor": 4489,
      "Daisy": 4490,
      "Fl": 4491,
      "Ġcree": 4492,
      "ense": 4493,
      "Ġstro": 4494,
      "Ġlives": 4495,
      "icle": 4496,
      "Ġevening": 4497,
      "Ġfiref": 4498,
      "Ġwhistling": 4499,
      "ĠBubbles": 4500,
      "Ġrelaxed": 4501,
      "Ġyoga": 4502,
      "Ġprepare": 4503,
      "Ġpumpkin": 4504,
      "Ġcreek": 4505,
      "Jim": 4506,
      "Ġweigh": 4507,
      "ĠBill": 4508,
      "Ġsung": 4509,
      "Ġappro": 4510,
      "ngth": 4511,
      "Ġarmchair": 4512,
      "Ġjudge": 4513,
      "Ġelephants": 4514,
      "Ġstrength": 4515,
      "Ġbathe": 4516,
      "Ġapron": 4517,
      "Ġbananas": 4518,
      "Ġcrossed": 4519,
      "tain": 4520,
      "ero": 4521,
      "Ġmug": 4522,
      "Ġmath": 4523,
      "Ġpalm": 4524,
      "atie": 4525,
      "Ġplays": 4526,
      "Ġlie": 4527,
      "Ġhappens": 4528,
      "Ġisn": 4529,
      "Ġhelper": 4530,
      "Ġmule": 4531,
      "Ġblinked": 4532,
      "Ġtrail": 4533,
      "Ġfireplace": 4534,
      "ĠInstead": 4535,
      "Ġcreated": 4536,
      "Ġsquirrels": 4537,
      "Ġbarrel": 4538,
      "Ġbasketball": 4539,
      "Ġpuzzles": 4540,
      "Ġkisses": 4541,
      "Ġsurround": 4542,
      "Ġeagerly": 4543,
      "ĠGod": 4544,
      "Ġserve": 4545,
      "Ġsneeze": 4546,
      "Ġcherry": 4547,
      "Ġtutor": 4548,
      "men": 4549,
      "rs": 4550,
      "Ġtucked": 4551,
      "Ġsigh": 4552,
      "Ġcase": 4553,
      "ĠTed": 4554,
      "omes": 4555,
      "chie": 4556,
      "Ġflame": 4557,
      "Ġflapped": 4558,
      "ĠEllie": 4559,
      "Ġgreedy": 4560,
      "Ġbury": 4561,
      "izes": 4562,
      "Ġunif": 4563,
      "aces": 4564,
      "Ġbelow": 4565,
      "Ġtriang": 4566,
      "anges": 4567,
      "Ġwelcomed": 4568,
      "Ġtrusted": 4569,
      "Ġfolder": 4570,
      "Ġsprayed": 4571,
      "Emma": 4572,
      "Ġmemories": 4573,
      "Ġexercise": 4574,
      "ah": 4575,
      "lier": 4576,
      "Ġport": 4577,
      "Ġrake": 4578,
      "rich": 4579,
      "Ġplastic": 4580,
      "indy": 4581,
      "Ġclaw": 4582,
      "Ġscoot": 4583,
      "rod": 4584,
      "Ġintrod": 4585,
      "ionary": 4586,
      "ction": 4587,
      "ĠPaul": 4588,
      "Ġdelay": 4589,
      "Ġshouting": 4590,
      "Ġbaking": 4591,
      "Ġceiling": 4592,
      "ĠAnnie": 4593,
      "Ġwandered": 4594,
      "ĠBuzz": 4595,
      "achel": 4596,
      "Ġrepeat": 4597,
      "lasses": 4598,
      "Ġsunglasses": 4599,
      "Ġuniform": 4600,
      "Is": 4601,
      "ait": 4602,
      "ring": 4603,
      "rise": 4604,
      "zor": 4605,
      "Ġfought": 4606,
      "Ġost": 4607,
      "Ġstad": 4608,
      "Ġsheet": 4609,
      "ĠBunny": 4610,
      "Ġrequ": 4611,
      "Ġreaches": 4612,
      "fume": 4613,
      "Ġspade": 4614,
      "Your": 4615,
      "Ġagre": 4616,
      "Ġshower": 4617,
      "Ġskills": 4618,
      "Ġbears": 4619,
      "Ġoffer": 4620,
      "Ġrazor": 4621,
      "Ġdear": 4622,
      "Ġperfume": 4623,
      "Ġparent": 4624,
      "Ġforgotten": 4625,
      "Ġquietly": 4626,
      "Ġtuna": 4627,
      "Today": 4628,
      "Ġrefre": 4629,
      "ictionary": 4630,
      "Ġlanguage": 4631,
      "Ġgrocer": 4632,
      "Ġstadium": 4633,
      "ives": 4634,
      "Ġig": 4635,
      "Ġsince": 4636,
      "Ġbreeze": 4637,
      "Ġdictionary": 4638,
      "Ġoil": 4639,
      "Ġyield": 4640,
      "Ġrise": 4641,
      "Ġlicks": 4642,
      "aggie": 4643,
      "ĠRu": 4644,
      "Ġambul": 4645,
      "Ġdressed": 4646,
      "Ġfirework": 4647,
      "Ġsailing": 4648,
      "Ġspoons": 4649,
      "Ġstud": 4650,
      "Ġpuddles": 4651,
      "Ġshrink": 4652,
      "Ġminute": 4653,
      "Ġbricks": 4654,
      "Ġchamber": 4655,
      "Ġinsect": 4656,
      "Ġostrich": 4657,
      "Ġigloo": 4658,
      "Ġambulance": 4659,
      "Qu": 4660,
      "eve": 4661,
      "nger": 4662,
      "aring": 4663,
      "ĠIÃ¢": 4664,
      "Ġalive": 4665,
      "Ġgrill": 4666,
      "Ġhurting": 4667,
      "Ġshovel": 4668,
      "Ġgrowled": 4669,
      "Ġsub": 4670,
      "Ġmissile": 4671,
      "ĠOr": 4672,
      "Ġspending": 4673,
      "Ġsniffed": 4674,
      "Ġsandcastle": 4675,
      "Ġberry": 4676,
      "Ġcared": 4677,
      "Ġcaul": 4678,
      "Ġmention": 4679,
      "ĠSu": 4680,
      "Ġplates": 4681,
      "unately": 4682,
      "herman": 4683,
      "Ġleak": 4684,
      "ases": 4685,
      "ifl": 4686,
      "Ġmyself": 4687,
      "Ġpopped": 4688,
      "Ġsunrise": 4689,
      "Ġstruc": 4690,
      "Ġburied": 4691,
      "Thanks": 4692,
      "Ġamazement": 4693,
      "Ġheads": 4694,
      "ĠNutty": 4695,
      "Ġfallen": 4696,
      "Ġbouncing": 4697,
      "Ġearlier": 4698,
      "Ġjewelry": 4699,
      "Ġfisherman": 4700,
      "Ġbreathe": 4701,
      "Ġseparate": 4702,
      "Ġcaulifl": 4703,
      "Ġstructure": 4704,
      "ab": 4705,
      "Ġpit": 4706,
      "enry": 4707,
      "Ġlick": 4708,
      "urch": 4709,
      "Ġseeing": 4710,
      "Ġrooms": 4711,
      "Ġquiz": 4712,
      "Ġraise": 4713,
      "Ġwrites": 4714,
      "Ġjogging": 4715,
      "Ġmagaz": 4716,
      "Ġfloated": 4717,
      "Ġcrash": 4718,
      "Ġblankets": 4719,
      "Ġsprink": 4720,
      "Ġwhisper": 4721,
      "Ġshooting": 4722,
      "Ġbeans": 4723,
      "ĠTrue": 4724,
      "Ġslept": 4725,
      "'.": 4726,
      "Did": 4727,
      "Sh": 4728,
      "ging": 4729,
      "Ġwigg": 4730,
      "Ġlime": 4731,
      "Ġnation": 4732,
      "Ġsaving": 4733,
      "allow": 4734,
      "anta": 4735,
      "Ġquit": 4736,
      "Ġquack": 4737,
      "Ġtelev": 4738,
      "Ġdoors": 4739,
      "Ġprevent": 4740,
      "Ġgifts": 4741,
      "Ġmailman": 4742,
      "Ġadmir": 4743,
      "Ġclassroom": 4744,
      "Ġpeanuts": 4745,
      "Ġsqueeze": 4746,
      "Ġsettled": 4747,
      "Ġargue": 4748,
      "ÅĵItÃ¢": 4749,
      "Ġyawned": 4750,
      "Ġpanda": 4751,
      "Ġflea": 4752,
      "Ġtelevision": 4753,
      "nies": 4754,
      "vet": 4755,
      "Ġaut": 4756,
      "Ġnovel": 4757,
      "Ġlawn": 4758,
      "ĠLuna": 4759,
      "estig": 4760,
      "Ġvet": 4761,
      "Ġfastest": 4762,
      "Ġjogged": 4763,
      "Ġsticky": 4764,
      "Ġfloat": 4765,
      "Ġdisappear": 4766,
      "Ġinvestig": 4767,
      "Ġshrugged": 4768,
      "Ġignored": 4769,
      "Ġmedal": 4770,
      "Ġmodel": 4771,
      "Ġscratch": 4772,
      "Ġyogurt": 4773,
      "Ġcauliflower": 4774,
      "Peter": 4775,
      "Will": 4776,
      "right": 4777,
      "Ġsizes": 4778,
      "Ġbother": 4779,
      "Ġcaring": 4780,
      "Ġkneel": 4781,
      "ĠCo": 4782,
      "Ġfollowing": 4783,
      "Ġhills": 4784,
      "Ġbuckle": 4785,
      "Ġeasier": 4786,
      "Ġcherries": 4787,
      "Ġdestroyed": 4788,
      "Ġurge": 4789,
      "Ġsubway": 4790,
      "cc": 4791,
      "Ġwaving": 4792,
      "Ġitch": 4793,
      "Ġelev": 4794,
      "elcome": 4795,
      "Ġtwink": 4796,
      "Ġskull": 4797,
      "Ġskipping": 4798,
      "Ġletting": 4799,
      "Ġwarmth": 4800,
      "Sammy": 4801,
      "Ġmatches": 4802,
      "Ġeasily": 4803,
      "Ġworms": 4804,
      "ĠChloe": 4805,
      "Ġstrawberries": 4806,
      "Ġappreciate": 4807,
      "Ġinfant": 4808,
      "Ġpraised": 4809,
      "Ġelevator": 4810,
      "Ġsings": 4811,
      "ito": 4812,
      "Ġcable": 4813,
      "omob": 4814,
      "Ġga": 4815,
      "Ġequ": 4816,
      "Ġbeamed": 4817,
      "ĠIs": 4818,
      "ĠBun": 4819,
      "hter": 4820,
      "Ġjazz": 4821,
      "asc": 4822,
      "Ġagree": 4823,
      "âĤ¬.": 4824,
      "Ġprop": 4825,
      "Ġchalk": 4826,
      "Ġchurch": 4827,
      "Ġlaughter": 4828,
      "Ġglo": 4829,
      "Ġunite": 4830,
      "Ġfloating": 4831,
      "Ġsetting": 4832,
      "Ġtaller": 4833,
      "Ġmusician": 4834,
      "Ġveh": 4835,
      "Ġcaptain": 4836,
      "Ġtriangle": 4837,
      "Ġclaws": 4838,
      "omobile": 4839,
      "Ġtoes": 4840,
      "Ġlect": 4841,
      "Ġpal": 4842,
      "Ġstitch": 4843,
      "ĠJul": 4844,
      "ĠDanny": 4845,
      "Ġmoves": 4846,
      "Ġwatches": 4847,
      "Ġcalls": 4848,
      "Ġchess": 4849,
      "Ġrabbits": 4850,
      "Ġparts": 4851,
      "Ġhearts": 4852,
      "Ġinstr": 4853,
      "Ġpastel": 4854,
      "Ġapart": 4855,
      "Ġeagle": 4856,
      "Ġburning": 4857,
      "Ġcircus": 4858,
      "omeday": 4859,
      "Ġstrawberry": 4860,
      "Ġcomplain": 4861,
      "Ġsausage": 4862,
      "Ġbleed": 4863,
      "Ġautomobile": 4864,
      "Ġinvestigate": 4865,
      "Ġlecture": 4866,
      "Ġpalace": 4867,
      "ived": 4868,
      "Ġachie": 4869,
      "ora": 4870,
      "ĠHave": 4871,
      "Ġemer": 4872,
      "These": 4873,
      "ĠMandy": 4874,
      "ĠWho": 4875,
      "Ġcoal": 4876,
      "Ġtrade": 4877,
      "Ġslip": 4878,
      "Ġkeeping": 4879,
      "Ġtrave": 4880,
      "Ġairpl": 4881,
      "Ġcastles": 4882,
      "Ġmystery": 4883,
      "Ġcollected": 4884,
      "Ġticket": 4885,
      "Ġcrawling": 4886,
      "Ġcuddled": 4887,
      "Ġbumped": 4888,
      "Ġapproached": 4889,
      "Ġgloves": 4890,
      "'ve": 4891,
      "Ouch": 4892,
      "ĊĠ": 4893,
      "ĠV": 4894,
      "Ġtore": 4895,
      "Ġcord": 4896,
      "Ġdaisy": 4897,
      "Ġsore": 4898,
      "Ġsport": 4899,
      "Ġscore": 4900,
      "Ġrod": 4901,
      "ĠLilly": 4902,
      "Ġskirt": 4903,
      "ĠJoy": 4904,
      "Ġblueberry": 4905,
      "Ġblackboard": 4906,
      "Ġprayed": 4907,
      "Daddy": 4908,
      "Ġvideo": 4909,
      "Eventually": 4910,
      "iers": 4911,
      "Ġtide": 4912,
      "Ġwine": 4913,
      "Ġhomes": 4914,
      "Ġfasc": 4915,
      "Ġhesit": 4916,
      "Ġmel": 4917,
      "Ġpages": 4918,
      "Ġgust": 4919,
      "Ġsocks": 4920,
      "ĠMilly": 4921,
      "raged": 4922,
      "Ġspit": 4923,
      "icing": 4924,
      "Ġscooped": 4925,
      "Ġcob": 4926,
      "Ġchir": 4927,
      "uckily": 4928,
      "Ġsurprises": 4929,
      "Ġdifferen": 4930,
      "Ġpaused": 4931,
      "Ġguy": 4932,
      "Ġplanes": 4933,
      "Ġmint": 4934,
      "Ġtomatoes": 4935,
      "Ġrevealed": 4936,
      "Ġinclud": 4937,
      "Ġavocado": 4938,
      "Or": 4939,
      "Ġsi": 4940,
      "Ġsomeday": 4941,
      "Ġtong": 4942,
      "Ġdare": 4943,
      "Ġmall": 4944,
      "atch": 4945,
      "Ġlip": 4946,
      "ĠMillie": 4947,
      "Ġboot": 4948,
      "Ġideas": 4949,
      "Ġheaded": 4950,
      "Ġdemand": 4951,
      "Ġsparkling": 4952,
      "Ġringing": 4953,
      "Ġpillows": 4954,
      "ĠFreddy": 4955,
      "Ġreceive": 4956,
      "Ġchirping": 4957,
      "Ġmagazine": 4958,
      "sing": 4959,
      "Ġtug": 4960,
      "Ġsimp": 4961,
      "Ġgear": 4962,
      "Ġweap": 4963,
      "Ġpoison": 4964,
      "ission": 4965,
      "Ġspots": 4966,
      "Ġunderstanding": 4967,
      "Ġfreez": 4968,
      "Ġinvite": 4969,
      "laire": 4970,
      "Ġsolved": 4971,
      "Ġcandles": 4972,
      "Ġdestination": 4973,
      "Ġweeks": 4974,
      "Ġgrinned": 4975,
      "Ġfirefight": 4976,
      "Lisa": 4977,
      "Tweet": 4978,
      "Wait": 4979,
      "bers": 4980,
      "cakes": 4981,
      "iately": 4982,
      "mm": 4983,
      "mother": 4984,
      "Ġwashing": 4985,
      "htray": 4986,
      "Ġashtray": 4987,
      "ĠFro": 4988,
      "Ġslice": 4989,
      "Ġoranges": 4990,
      "Ġeaten": 4991,
      "ipment": 4992,
      "Ġclimbs": 4993,
      "Ġpulling": 4994,
      "Ġdeeper": 4995,
      "mediately": 4996,
      "Ġvillag": 4997,
      "Ġdecorations": 4998,
      "Ġsoldiers": 4999,
      "Ġradish": 5000,
      "Ġjellyfish": 5001,
      "ĠPeople": 5002,
      "Ġpermission": 5003,
      "Ġreverse": 5004,
      "osed": 5005,
      "web": 5006,
      "oming": 5007,
      "Ġhers": 5008,
      "ĠIts": 5009,
      "Ġmeowed": 5010,
      "Ġsnapped": 5011,
      "ĠCat": 5012,
      "Ġappear": 5013,
      "Ġdrinking": 5014,
      "Ġcrunch": 5015,
      "ulu": 5016,
      "Ġmoments": 5017,
      "Ġsparkle": 5018,
      "fortunately": 5019,
      "ĠCharlie": 5020,
      "Ġsqueezed": 5021,
      "Ġinsisted": 5022,
      "Ġprovide": 5023,
      "Ġdiscuss": 5024,
      "Fluffy": 5025,
      "Ġscooter": 5026,
      "Ġequipment": 5027,
      "Ġairplane": 5028,
      "Ġfascin": 5029,
      "Ġcobweb": 5030,
      "Yuck": 5031,
      "dam": 5032,
      "kins": 5033,
      "Ġfile": 5034,
      "ĠTina": 5035,
      "Ġweighed": 5036,
      "Ġjail": 5037,
      "ĠJames": 5038,
      "Ġcopper": 5039,
      "emember": 5040,
      "Ġreplace": 5041,
      "Ġsits": 5042,
      "Ġchoice": 5043,
      "Ġpatiently": 5044,
      "Ġchewed": 5045,
      "Ġmelted": 5046,
      "Ġstruggling": 5047,
      "Ġpunish": 5048,
      "mend": 5049,
      "reen": 5050,
      "Ġdried": 5051,
      "Ġdire": 5052,
      "Ġeff": 5053,
      "seek": 5054,
      "Ġtremb": 5055,
      "Ġblood": 5056,
      "quito": 5057,
      "ĠKing": 5058,
      "Ġenter": 5059,
      "Ġignore": 5060,
      "Ġpanic": 5061,
      "Ġreceived": 5062,
      "ĠUn": 5063,
      "Ġsuffer": 5064,
      "house": 5065,
      "lvet": 5066,
      "xy": 5067,
      "Ġmitten": 5068,
      "ommend": 5069,
      "anna": 5070,
      "Ġbegged": 5071,
      "Ġstable": 5072,
      "Ġshamp": 5073,
      "Ġmanage": 5074,
      "asis": 5075,
      "ĠLiz": 5076,
      "Ġchores": 5077,
      "Ġblouse": 5078,
      "Ġstrang": 5079,
      "Ġbravely": 5080,
      "ĠGood": 5081,
      "Johnny": 5082,
      "Ġbites": 5083,
      "Ġvelvet": 5084,
      "Ġbelieved": 5085,
      "Ġwarning": 5086,
      "Ġmeeting": 5087,
      "Ġrecommend": 5088,
      "looking": 5089,
      "Ġpedal": 5090,
      "Ġoats": 5091,
      "Ġacorns": 5092,
      "Ġribbon": 5093,
      "Ġvehicle": 5094,
      "Ġchirped": 5095,
      "Ġvillagers": 5096,
      "Ġshampoo": 5097,
      "\",": 5098,
      "All": 5099,
      "Not": 5100,
      "Would": 5101,
      "case": 5102,
      "Ġaer": 5103,
      "Ġoasis": 5104,
      "Ġnone": 5105,
      "Ġyucky": 5106,
      "ĠAb": 5107,
      "umble": 5108,
      "opl": 5109,
      "Ġvac": 5110,
      "Ġsnap": 5111,
      "Ġdrain": 5112,
      "ĠRob": 5113,
      "Ġdresses": 5114,
      "Ġhotel": 5115,
      "orses": 5116,
      "Ġrespons": 5117,
      "Ġpastry": 5118,
      "ĠOl": 5119,
      "Ġteaching": 5120,
      "Ġtwisted": 5121,
      "Ġearthqu": 5122,
      "Ġencouraged": 5123,
      "Ġscattered": 5124,
      "Ġrubber": 5125,
      "Ġmuffin": 5126,
      "Ġweapon": 5127,
      "Ġeffort": 5128,
      "xygen": 5129,
      "Ġaeropl": 5130,
      "squito": 5131,
      "Ġsix": 5132,
      "Ġlugg": 5133,
      "Ġitem": 5134,
      "Ġshed": 5135,
      "sters": 5136,
      "Ġspaces": 5137,
      "Ġalright": 5138,
      "Ġranch": 5139,
      "Ġpride": 5140,
      "ĠLee": 5141,
      "Ġdownstairs": 5142,
      "ĠDan": 5143,
      "aper": 5144,
      "Ġmosquito": 5145,
      "Ġkindly": 5146,
      "ĠRachel": 5147,
      "ĠFloppy": 5148,
      "Ġanswers": 5149,
      "Ġplanted": 5150,
      "Ġinvit": 5151,
      "Ġcoats": 5152,
      "Ġsupposed": 5153,
      "ĠChirp": 5154,
      "Ġsneezed": 5155,
      "Ġrefreshed": 5156,
      "Ġdifference": 5157,
      "Ġluggage": 5158,
      "With": 5159,
      "Ġhorses": 5160,
      "Ġfut": 5161,
      "Ġlung": 5162,
      "Ġmass": 5163,
      "ishing": 5164,
      "ety": 5165,
      "Ġripped": 5166,
      "Ġrush": 5167,
      "alley": 5168,
      "Ġsew": 5169,
      "essie": 5170,
      "Ġworks": 5171,
      "Ġours": 5172,
      "ĠKatie": 5173,
      "Ġpetted": 5174,
      "Ġcompany": 5175,
      "Ġcollecting": 5176,
      "Ġentered": 5177,
      "Ġsafety": 5178,
      "Ġsliding": 5179,
      "ĠBefore": 5180,
      "Ġtickets": 5181,
      "Ġsettle": 5182,
      "Ġrecognized": 5183,
      "Ġdisagreed": 5184,
      "Ġtemple": 5185,
      "Ġexperience": 5186,
      "Ġobserve": 5187,
      "Ġaeroplane": 5188,
      "Ġfuture": 5189,
      "Mandy": 5190,
      "Ġoxygen": 5191,
      "ĠSanta": 5192,
      "amb": 5193,
      "ĠMay": 5194,
      "Ġanch": 5195,
      "Ġroot": 5196,
      "ĠEach": 5197,
      "antly": 5198,
      "embers": 5199,
      "Ġbrain": 5200,
      "Ġremembers": 5201,
      "Ġsteel": 5202,
      "avid": 5203,
      "Ġmouths": 5204,
      "Ġplanet": 5205,
      "Ġhits": 5206,
      "Ġactually": 5207,
      "Ġhurric": 5208,
      "ÅĵThatÃ¢": 5209,
      "Ġadmiring": 5210,
      "Ġstrangers": 5211,
      "Ġearthquake": 5212,
      "Ex": 5213,
      "cage": 5214,
      "cles": 5215,
      "Ġsip": 5216,
      "Ġbun": 5217,
      "Ġwaist": 5218,
      "Ġchat": 5219,
      "Ġobe": 5220,
      "Ġrow": 5221,
      "Ġweight": 5222,
      "Ġshot": 5223,
      "allen": 5224,
      "Ġbirdcage": 5225,
      "Ġnewsp": 5226,
      "ĠLulu": 5227,
      "Ġsunlight": 5228,
      "ÅĵLook": 5229,
      "Ġturning": 5230,
      "Ġwherever": 5231,
      "Ġperched": 5232,
      "Ġhated": 5233,
      "Ġcontinue": 5234,
      "Ġvisiting": 5235,
      "Ġbeef": 5236,
      "Ġbringing": 5237,
      "Ġsuitc": 5238,
      "Ġwhistled": 5239,
      "Ġincre": 5240,
      "ĠSteve": 5241,
      "Ġselling": 5242,
      "Really": 5243,
      "Ġapologize": 5244,
      "Ġmarbles": 5245,
      "Emily": 5246,
      "Ġbrick": 5247,
      "Ġrequest": 5248,
      "ĠCoco": 5249,
      "Ġtongue": 5250,
      "Ġhate": 5251,
      "Ġwagging": 5252,
      "Ġhanger": 5253,
      "igail": 5254,
      "ĠFo": 5255,
      "Ġtease": 5256,
      "Ġremained": 5257,
      "Ġtracks": 5258,
      "Ġdraws": 5259,
      "Ġrested": 5260,
      "Ġcutting": 5261,
      "Ġmarching": 5262,
      "osity": 5263,
      "Ġattached": 5264,
      "Ġneighbors": 5265,
      "Ġfreeze": 5266,
      "Ġwarn": 5267,
      "Ġpinched": 5268,
      "Ġtwigs": 5269,
      "Ġbattery": 5270,
      "Ġpenguins": 5271,
      "Ġanchor": 5272,
      "ha": 5273,
      "zag": 5274,
      "Ġlily": 5275,
      "Ġdigg": 5276,
      "enny": 5277,
      "Ġnavy": 5278,
      "ĠHarry": 5279,
      "Ġbeg": 5280,
      "Ġstaff": 5281,
      "Ġsoared": 5282,
      "enty": 5283,
      "Ġjunk": 5284,
      "Ġcliff": 5285,
      "Ġchallen": 5286,
      "Ġneedles": 5287,
      "Ġimmediately": 5288,
      "Ġlets": 5289,
      "xture": 5290,
      "Ġrestore": 5291,
      "Ġperfor": 5292,
      "Ġcomforted": 5293,
      "Ġzooming": 5294,
      "Ġmachines": 5295,
      "ĠSomeone": 5296,
      "Before": 5297,
      "Ġexamined": 5298,
      "Ġcuddle": 5299,
      "Ġpermit": 5300,
      "Ġneighbourhood": 5301,
      "Ġprune": 5302,
      "Ġcartoons": 5303,
      "Ġsurrounded": 5304,
      "Ġvacation": 5305,
      "Ġhurricane": 5306,
      "Mor": 5307,
      "Welcome": 5308,
      "tory": 5309,
      "walk": 5310,
      "igzag": 5311,
      "amie": 5312,
      "Ġhistory": 5313,
      "aded": 5314,
      "ents": 5315,
      "!\",": 5316,
      "Ġworse": 5317,
      "Ġdecision": 5318,
      "ĠCindy": 5319,
      "Ġconf": 5320,
      "Ġzipped": 5321,
      "Ġladyb": 5322,
      "Ġcomple": 5323,
      "Ġsecrets": 5324,
      "Ġproblems": 5325,
      "Ġguessed": 5326,
      "Ġdisturbed": 5327,
      "Ġtornado": 5328,
      "Ġsimple": 5329,
      "Ġcrunchy": 5330,
      "Ġobey": 5331,
      "Ġdigging": 5332,
      "Moral": 5333,
      "Kitty": 5334,
      "act": 5335,
      "nie": 5336,
      "neath": 5337,
      "oed": 5338,
      "zie": 5339,
      "Ġx": 5340,
      "Ġtoe": 5341,
      "Ġduring": 5342,
      "Ġvalley": 5343,
      "ĠEveryday": 5344,
      "izing": 5345,
      "ĠJosh": 5346,
      "Ġglowed": 5347,
      "Ġbookcase": 5348,
      "Ġbeds": 5349,
      "Ġprinted": 5350,
      "Ġgrowl": 5351,
      "Ġgrandmother": 5352,
      "Ġneighborhood": 5353,
      "Ġguns": 5354,
      "Ġprice": 5355,
      "Ġrides": 5356,
      "Ġprunes": 5357,
      "Ġolive": 5358,
      "ĠChirpy": 5359,
      "Ġbunnies": 5360,
      "Jake": 5361,
      "Ro": 5362,
      "mare": 5363,
      "oved": 5364,
      "ari": 5365,
      "lee": 5366,
      "ĠBir": 5367,
      "Ġlic": 5368,
      "Ġloop": 5369,
      "Ġscur": 5370,
      "Ġbrings": 5371,
      "Ġrang": 5372,
      "bbled": 5373,
      "Ġoper": 5374,
      "Ġwatered": 5375,
      "Ġstruggled": 5376,
      "Ġfamil": 5377,
      "Ġwond": 5378,
      "ÅĵNo": 5379,
      "Ġthrilled": 5380,
      "ĠSpike": 5381,
      "Ġbeneath": 5382,
      "Ġpastels": 5383,
      "ĠSomething": 5384,
      "Ġargued": 5385,
      "Ġbalancing": 5386,
      "Ġstomach": 5387,
      "Ġagreement": 5388,
      "Ġspaceship": 5389,
      "Ġinvitation": 5390,
      "Susie": 5391,
      "fy": 5392,
      "Ġbes": 5393,
      "ĠBird": 5394,
      "ddy": 5395,
      "Ġmuddy": 5396,
      "ĠLater": 5397,
      "isten": 5398,
      "Ġpoppy": 5399,
      "Ġgrape": 5400,
      "Ġoverjoy": 5401,
      "Ġraised": 5402,
      "Ġbroom": 5403,
      "Ġfiremen": 5404,
      "Ġcatching": 5405,
      "Ġsparkles": 5406,
      "Ġpaints": 5407,
      "Ġdiscovery": 5408,
      "Ġjewels": 5409,
      "ĠFrank": 5410,
      "Ġpotatoes": 5411,
      "Ġmeasuring": 5412,
      "Ġbleeding": 5413,
      "Ġfascinated": 5414,
      "Ġnewspaper": 5415,
      "Ġoverjoyed": 5416,
      "ude": 5417,
      "Ġfest": 5418,
      "Ġmittens": 5419,
      "ays": 5420,
      "Ġevent": 5421,
      "ppers": 5422,
      "Ġlips": 5423,
      "ĠMe": 5424,
      "ĠMaggie": 5425,
      "Ġeveryday": 5426,
      "Ġpossible": 5427,
      "Ġcomfy": 5428,
      "Ġcub": 5429,
      "Ġcones": 5430,
      "Ġcrept": 5431,
      "Ġtrapped": 5432,
      "Ġrained": 5433,
      "Ġnightmare": 5434,
      "Ġsteak": 5435,
      "Ġbuildings": 5436,
      "Ġseats": 5437,
      "Ġmenu": 5438,
      "Ġintroduc": 5439,
      "Ġmelon": 5440,
      "Ġfreezer": 5441,
      "Ġmassage": 5442,
      "Ġlicense": 5443,
      "!'": 5444,
      "Yum": 5445,
      "do": 5446,
      "low": 5447,
      "Ġcaut": 5448,
      "Ġpitch": 5449,
      "Ġgain": 5450,
      "lend": 5451,
      "igi": 5452,
      "Ġonwards": 5453,
      "Ġanytime": 5454,
      "Ġremain": 5455,
      "Ġtalent": 5456,
      "Ġcontain": 5457,
      "Ġfixing": 5458,
      "Ġsatis": 5459,
      "Ġprec": 5460,
      "Ġmuscles": 5461,
      "Ġsidewalk": 5462,
      "Ġmustache": 5463,
      "ÅĵIÃ¢": 5464,
      "cape": 5465,
      "Ġclearing": 5466,
      "Ġfigured": 5467,
      "Ġurged": 5468,
      "Ġlandscape": 5469,
      "Ġgrocery": 5470,
      "Ġmentioned": 5471,
      "Ġbeside": 5472,
      "Ġfestiv": 5473,
      "fied": 5474,
      "len": 5475,
      "sity": 5476,
      "udy": 5477,
      "zing": 5478,
      "hell": 5479,
      "Ġfed": 5480,
      "Ġfash": 5481,
      "Ġsty": 5482,
      "Ġupstairs": 5483,
      "ĠBeth": 5484,
      "ĠAdam": 5485,
      "Ġbrid": 5486,
      "Ġbrus": 5487,
      "Ġpretti": 5488,
      "Ġunderneath": 5489,
      "ĠPip": 5490,
      "ĠLetÃ¢": 5491,
      "Ġcrumb": 5492,
      "Ġdrift": 5493,
      "Ġaccom": 5494,
      "Ġminer": 5495,
      "Ġpracticing": 5496,
      "Ġordered": 5497,
      "Ġvanished": 5498,
      "Ġprepared": 5499,
      "Ġuniverse": 5500,
      "Ġbuzzing": 5501,
      "Ġemergen": 5502,
      "Ġwonders": 5503,
      "Ġprettiest": 5504,
      "Bella": 5505,
      "Mark": 5506,
      "ding": 5507,
      "mble": 5508,
      "riger": 5509,
      "ĠQu": 5510,
      "Ġtip": 5511,
      "Ġtonight": 5512,
      "ities": 5513,
      "Ġcal": 5514,
      "ĠThese": 5515,
      "Ġrust": 5516,
      "Ġweren": 5517,
      "Ġflap": 5518,
      "ĠLike": 5519,
      "ĠDavid": 5520,
      "ĠCarl": 5521,
      "hyth": 5522,
      "Ġvoices": 5523,
      "ĠNot": 5524,
      "Ġcrashed": 5525,
      "Ġpets": 5526,
      "Ġbottles": 5527,
      "Ġcalend": 5528,
      "Ġstirring": 5529,
      "Ġrefriger": 5530,
      "Ġcurtains": 5531,
      "Ġbalanced": 5532,
      "ĠBetsy": 5533,
      "ĠRuby": 5534,
      "Ġproperly": 5535,
      "hythm": 5536,
      "Ġcalendar": 5537,
      "Ġrefrigerator": 5538,
      "ĠOnce": 5539,
      "Ġawe": 5540,
      "Ġbank": 5541,
      "omas": 5542,
      "ĠSad": 5543,
      "ĠHenry": 5544,
      "riage": 5545,
      "ĠBig": 5546,
      "Ġhappiest": 5547,
      "Ġwanting": 5548,
      "Ġwhip": 5549,
      "Ġgirls": 5550,
      "Ġsadness": 5551,
      "Ġlaid": 5552,
      "Ġflav": 5553,
      "Ġzigzag": 5554,
      "Ġbookshe": 5555,
      "ĠJenna": 5556,
      "Ġmission": 5557,
      "Ġbouncy": 5558,
      "Ġtune": 5559,
      "Ġparked": 5560,
      "Ready": 5561,
      "Ġscratched": 5562,
      "Ġrecognize": 5563,
      "Ġmeasured": 5564,
      "Ġuniversity": 5565,
      "Ġstudied": 5566,
      "Ġinstruct": 5567,
      "Ġsuitcase": 5568,
      "Ġcompleted": 5569,
      "Ġprecious": 5570,
      "Ġfestival": 5571,
      "Ġaccompl": 5572,
      "Le": 5573,
      "Mmm": 5574,
      "Ok": 5575,
      "Ye": 5576,
      "eed": 5577,
      "hest": 5578,
      "Ġtugged": 5579,
      "Ġbill": 5580,
      "Ġda": 5581,
      "Ġheat": 5582,
      "ides": 5583,
      "Ġbeat": 5584,
      "Ġloose": 5585,
      "Ġtremble": 5586,
      "agull": 5587,
      "Ġflood": 5588,
      "ĠElly": 5589,
      "Ġbye": 5590,
      "Ġruler": 5591,
      "Ġswims": 5592,
      "Ġsteam": 5593,
      "Ġshopping": 5594,
      "Ġbowed": 5595,
      "Ġaccidents": 5596,
      "ĠChr": 5597,
      "Ġroaring": 5598,
      "ĠZoom": 5599,
      "Ġescaped": 5600,
      "Ġcrackers": 5601,
      "Rex": 5602,
      "Ġstrip": 5603,
      "Ġsoaring": 5604,
      "Ġcurled": 5605,
      "Ġpatterns": 5606,
      "...": 5607,
      "Ġsucceeded": 5608,
      "Ġornaments": 5609,
      "Ġsprinkles": 5610,
      "Ġincluded": 5611,
      "Ġtrembling": 5612,
      "annah": 5613,
      "ĠAbigail": 5614,
      "Ġbridges": 5615,
      "Remember": 5616,
      "Somet": 5617,
      "jam": 5618,
      "Ġwid": 5619,
      "Ġlines": 5620,
      "Ġdied": 5621,
      "Ġnicer": 5622,
      "terday": 5623,
      "Ġseagull": 5624,
      "Ġspill": 5625,
      "Ġchases": 5626,
      "Ġpeel": 5627,
      "Ġgrey": 5628,
      "Ġpupp": 5629,
      "Ġrocked": 5630,
      "Ġstole": 5631,
      "Ġcreation": 5632,
      "Ġrealize": 5633,
      "Ġowned": 5634,
      "Ġsweets": 5635,
      "thank": 5636,
      "Ġsnowball": 5637,
      "Ġrolls": 5638,
      "Ġrockets": 5639,
      "Ġpassing": 5640,
      "Ġpouring": 5641,
      "Ġprotected": 5642,
      "Ġlemons": 5643,
      "Ġpancakes": 5644,
      "Ġleader": 5645,
      "Ġunlocked": 5646,
      "Ġwaffles": 5647,
      "Ġbegin": 5648,
      "Ġemergency": 5649,
      "Ġinstructions": 5650,
      "jamas": 5651,
      "Happy": 5652,
      "Luckily": 5653,
      "rin": 5654,
      "Ġbare": 5655,
      "Ġbang": 5656,
      "Ġfet": 5657,
      "ishes": 5658,
      "ĠSund": 5659,
      "imy": 5660,
      "ĠMiss": 5661,
      "Ġann": 5662,
      "Ġarea": 5663,
      "ĠLucky": 5664,
      "Ġbecoming": 5665,
      "ĠCar": 5666,
      "Ġremove": 5667,
      "ffic": 5668,
      "ĠGigi": 5669,
      "Ġtraffic": 5670,
      "Ġwaits": 5671,
      "Ġseesaw": 5672,
      "Ġprinter": 5673,
      "Ġsteep": 5674,
      "ults": 5675,
      "Ġpajamas": 5676,
      "Ġdoctors": 5677,
      "Ġserved": 5678,
      "Ġclaps": 5679,
      "Ġtasks": 5680,
      "ĠSuzy": 5681,
      "Ġfirefighters": 5682,
      "Ġresponsible": 5683,
      "Ġitems": 5684,
      "Ġoperation": 5685,
      "Ġintroduced": 5686,
      "gers": 5687,
      "son": 5688,
      "Ġlamb": 5689,
      "Ġcakes": 5690,
      "Ġdared": 5691,
      "ĠHop": 5692,
      "vers": 5693,
      "Ġsting": 5694,
      "alph": 5695,
      "ĠLizzy": 5696,
      "Ġpearl": 5697,
      "Ġchef": 5698,
      "ÅĵWe": 5699,
      "Ġwaiter": 5700,
      "Ġtastes": 5701,
      "iggy": 5702,
      "Ġpigs": 5703,
      "Ġgathering": 5704,
      "Ġsolut": 5705,
      "Ġmountains": 5706,
      "Ġdecorated": 5707,
      "ĠZoe": 5708,
      "Ġwisdom": 5709,
      "Ġpencils": 5710,
      "Ġrubs": 5711,
      "Ġlibrarian": 5712,
      "Ġolives": 5713,
      "ĠBetty": 5714,
      "Ġregretted": 5715,
      "Ġpurred": 5716,
      "lowly": 5717,
      "Ġbookshelf": 5718,
      "First": 5719,
      "Mar": 5720,
      "ales": 5721,
      "ĠHoppy": 5722,
      "Ġeight": 5723,
      "Ġripe": 5724,
      "addy": 5725,
      "Ġoutdo": 5726,
      "Ġexit": 5727,
      "icky": 5728,
      "Ġvent": 5729,
      "Ġpeppers": 5730,
      "ĠClaire": 5731,
      "Ġteasing": 5732,
      "Ġhardly": 5733,
      "Ġracing": 5734,
      "Ġsinger": 5735,
      "Ġplanned": 5736,
      "Ġscreams": 5737,
      "Ġbathrobe": 5738,
      "Bobo": 5739,
      "Ġroads": 5740,
      "Ġactiv": 5741,
      "Ġcape": 5742,
      "Ġhurried": 5743,
      "Ġloaded": 5744,
      "Ġsighs": 5745,
      "Ġachieve": 5746,
      "Ġfashion": 5747,
      "ĠSunday": 5748,
      "Mike": 5749,
      "ex": 5750,
      "fit": 5751,
      "ĠYes": 5752,
      "Ġwink": 5753,
      "Ġbones": 5754,
      "Ġheel": 5755,
      "Ġmater": 5756,
      "ĠTues": 5757,
      "Ġrhythm": 5758,
      "Ġmeow": 5759,
      "Ġhugging": 5760,
      "Ġpoking": 5761,
      "Ġhowever": 5762,
      "Ġpears": 5763,
      "Ġstruck": 5764,
      "Ġimage": 5765,
      "Ġbrand": 5766,
      "ÅĵThank": 5767,
      "ÅĵDon": 5768,
      "acob": 5769,
      "Ġbreaking": 5770,
      "ĠRobby": 5771,
      "Ġcuriosity": 5772,
      "Ġfrosting": 5773,
      "Ġmixing": 5774,
      "Ġwinning": 5775,
      "Goodbye": 5776,
      "Ġentire": 5777,
      "Ġsafer": 5778,
      "Ġfolded": 5779,
      "Ġstamps": 5780,
      "âĤ¬âĢĿ": 5781,
      "Ġstealing": 5782,
      "Ġcostumes": 5783,
      "Ġcurly": 5784,
      "Ġencourage": 5785,
      "Ġpadd": 5786,
      "ĠFroggy": 5787,
      "Sometimes": 5788,
      "Ġmateri": 5789,
      "ĠTuesday": 5790,
      "Bobby": 5791,
      "Ha": 5792,
      "ik": 5793,
      "mallow": 5794,
      "per": 5795,
      "uzz": 5796,
      "zen": 5797,
      "Ġti": 5798,
      "Ġmister": 5799,
      "ayla": 5800,
      "ana": 5801,
      "Ġthro": 5802,
      "Ġhomework": 5803,
      "Ġpeered": 5804,
      "Ġofficer": 5805,
      "ĠPenny": 5806,
      "ĠGreen": 5807,
      "Ġwondering": 5808,
      "Ġfrozen": 5809,
      "Ġwooden": 5810,
      "oline": 5811,
      "Ġcollection": 5812,
      "ĠStop": 5813,
      "Ġpiles": 5814,
      "Ġstudying": 5815,
      "arshmallow": 5816,
      "Ġpaddle": 5817,
      "Ġstruggle": 5818,
      "Ġdisagree": 5819,
      "Ġshadows": 5820,
      "Ġladybug": 5821,
      "Ġbillboard": 5822,
      "Ġbarely": 5823,
      "Ġthroat": 5824,
      "George": 5825,
      "Mittens": 5826,
      "Teddy": 5827,
      "iar": 5828,
      "mel": 5829,
      "Ġwiz": 5830,
      "edding": 5831,
      "Ġfara": 5832,
      "itely": 5833,
      "erature": 5834,
      "Ġge": 5835,
      "Ġbend": 5836,
      "Ġbeard": 5837,
      "Ġstare": 5838,
      "ĠMat": 5839,
      "ĠAn": 5840,
      "Ġexact": 5841,
      "Ġknelt": 5842,
      "Ġallow": 5843,
      "Ġclick": 5844,
      "Ġago": 5845,
      "Ġgotten": 5846,
      "Ġdecides": 5847,
      "usted": 5848,
      "ĠDid": 5849,
      "Ġvict": 5850,
      "Ġsorting": 5851,
      "Ġslimy": 5852,
      "Ġunderground": 5853,
      "ĠletÃ¢": 5854,
      "Ġracc": 5855,
      "Ġforgi": 5856,
      "Joey": 5857,
      "ĠDolly": 5858,
      "ĠDoggy": 5859,
      "Ġbeha": 5860,
      "Ġprints": 5861,
      "Ġmatched": 5862,
      "Ġkeys": 5863,
      "Ġkicking": 5864,
      "Ġspiders": 5865,
      "Ġscru": 5866,
      "Ġtickle": 5867,
      "Ġdinosaurs": 5868,
      "Ġsilence": 5869,
      "Ġmemory": 5870,
      "Ġrubbing": 5871,
      "Ġtemperature": 5872,
      "Ġapplauded": 5873,
      "Ġoutdoors": 5874,
      "Ġfaraway": 5875,
      "Ġraccoon": 5876,
      "Ah": 5877,
      "Pete": 5878,
      "pected": 5879,
      "rance": 5880,
      "uly": 5881,
      "Ġ1": 5882,
      "Ġmast": 5883,
      "Ġpies": 5884,
      "une": 5885,
      "Ġoutfit": 5886,
      "Ġtheirs": 5887,
      "Ġbrushed": 5888,
      "Ġflat": 5889,
      "Ġknees": 5890,
      "ÅĵCan": 5891,
      "Ġdragged": 5892,
      "Ġkeeps": 5893,
      "Ġunex": 5894,
      "Afterwards": 5895,
      "Ġpartic": 5896,
      "Ġbaked": 5897,
      "Ġtrips": 5898,
      "Ġreminder": 5899,
      "Ġknights": 5900,
      "Ġsights": 5901,
      "Ġcompetition": 5902,
      "Ġshivered": 5903,
      "Ġsurface": 5904,
      "Ġpupil": 5905,
      "Ġdusty": 5906,
      "Ġreveal": 5907,
      "Ġscurried": 5908,
      "Ġbrushes": 5909,
      "Ġsolution": 5910,
      "Ġunexpected": 5911,
      ".'": 5912,
      "hins": 5913,
      "ib": 5914,
      "ody": 5915,
      "Ġsides": 5916,
      "Ġfir": 5917,
      "Ġheav": 5918,
      "ided": 5919,
      "iding": 5920,
      "owers": 5921,
      "Ġrelease": 5922,
      "riends": 5923,
      "Ġspike": 5924,
      "Ġexha": 5925,
      "Ġscra": 5926,
      "Ġwhatever": 5927,
      "Ġopin": 5928,
      "ÅĵHello": 5929,
      "Ġstaying": 5930,
      "Ġbedtime": 5931,
      "ĠRa": 5932,
      "Ġzero": 5933,
      "Ġdreamt": 5934,
      "Ġsitu": 5935,
      "Ġpotion": 5936,
      "Ġhealed": 5937,
      "Ġrainbows": 5938,
      "Ġdrinks": 5939,
      "Andy": 5940,
      "Ġresult": 5941,
      "Ġorganizing": 5942,
      "Ġsafari": 5943,
      "ĠHowever": 5944,
      "Ġstretching": 5945,
      "Ġblows": 5946,
      "Ġdolphins": 5947,
      "Ġbloomed": 5948,
      "Ġdiscovering": 5949,
      "Ġlabel": 5950,
      "Ġweeping": 5951,
      "Annie": 5952,
      "Ġgazed": 5953,
      "ĠJulie": 5954,
      "Ġtravell": 5955,
      "Ġdirection": 5956,
      "Ġchallenge": 5957,
      "Ġexactly": 5958,
      "James": 5959,
      "Mr": 5960,
      "bies": 5961,
      "rr": 5962,
      "shing": 5963,
      "Ġwound": 5964,
      "Ġfart": 5965,
      "Ġpiggy": 5966,
      "Ġgained": 5967,
      "Ġinch": 5968,
      "sted": 5969,
      "Ġrele": 5970,
      "Ġloving": 5971,
      "Ġroots": 5972,
      "asp": 5973,
      "Ġranger": 5974,
      "ĠFirst": 5975,
      "Ġtruly": 5976,
      "aura": 5977,
      "Ġsnat": 5978,
      "Ġworkers": 5979,
      "ĠThomas": 5980,
      "Ġcontro": 5981,
      "Ġmonsters": 5982,
      "though": 5983,
      "ĠwasnÃ¢": 5984,
      "Ġdragons": 5985,
      "Ġwinner": 5986,
      "Ġexpected": 5987,
      "ĠAlways": 5988,
      "Ġchewing": 5989,
      "Ġcovers": 5990,
      "ophia": 5991,
      "Ġstrike": 5992,
      "Ġpedals": 5993,
      "Ġpunished": 5994,
      "Ġmuffins": 5995,
      "Ġseashell": 5996,
      "Ġkneeled": 5997,
      "Ġguys": 5998,
      "Ġdemanded": 5999,
      "Ġcautious": 6000,
      "Ġcrumbs": 6001,
      "Ġparticular": 6002,
      "Ġfirm": 6003,
      "Ġexhausted": 6004,
      "Polly": 6005,
      "lings": 6006,
      "mas": 6007,
      "uri": 6008,
      "vin": 6009,
      "Ġtim": 6010,
      "Ġtax": 6011,
      "ences": 6012,
      "ĠSlowly": 6013,
      "Ġweb": 6014,
      "ĠBy": 6015,
      "Ġliqu": 6016,
      "Ġnoses": 6017,
      "Ġchoo": 6018,
      "Ġvowed": 6019,
      "bbing": 6020,
      "Ġeats": 6021,
      "Ġgreet": 6022,
      "Ġbudge": 6023,
      "ĠPoppy": 6024,
      "ĠPinky": 6025,
      "Ġcoloring": 6026,
      "Ġwrist": 6027,
      "Ġlistens": 6028,
      "Ġourselves": 6029,
      "Ġsweeties": 6030,
      "Ġrule": 6031,
      "Ġbabies": 6032,
      "Ġdarkness": 6033,
      "avi": 6034,
      "Ġpolishing": 6035,
      "Ġsisters": 6036,
      "Ġrelief": 6037,
      "ĠZero": 6038,
      "Ġsilent": 6039,
      "Ġfuzzy": 6040,
      "Ġcountryside": 6041,
      "Ġitchy": 6042,
      "Ġconfident": 6043,
      "Ġwizard": 6044,
      "Ġtaxi": 6045,
      "Ġliquid": 6046,
      "nes": 6047,
      "ossible": 6048,
      "wo": 6049,
      "you": 6050,
      "Ġwedding": 6051,
      "ednes": 6052,
      "Ġtodd": 6053,
      "Ġboo": 6054,
      "Ġbumpy": 6055,
      "Ġcous": 6056,
      "Ġmice": 6057,
      "Ġpout": 6058,
      "Ġpist": 6059,
      "ĠTiny": 6060,
      "isies": 6061,
      "ĠHappy": 6062,
      "Ġbelly": 6063,
      "ĠJudy": 6064,
      "aren": 6065,
      "Ġscoop": 6066,
      "ĠWednes": 6067,
      "Ġgoodnight": 6068,
      "Ġflas": 6069,
      "Ġflames": 6070,
      "istmas": 6071,
      "Ġsorted": 6072,
      "Ġslap": 6073,
      "Ġslapped": 6074,
      "aky": 6075,
      "Ġteasp": 6076,
      "Ġimpossible": 6077,
      "Ġconcer": 6078,
      "Ġopening": 6079,
      "Ġplanets": 6080,
      "Ġhighest": 6081,
      "Ġdeser": 6082,
      "Ġgiggling": 6083,
      "Ġacted": 6084,
      "Ġentrance": 6085,
      "Ġhonk": 6086,
      "Ġflags": 6087,
      "Ġtwirling": 6088,
      "However": 6089,
      "Ġcopy": 6090,
      "Ġmagnets": 6091,
      "Ġstripes": 6092,
      "Ġpowers": 6093,
      "cuse": 6094,
      "Ġrepeated": 6095,
      "uctantly": 6096,
      "Ġburrow": 6097,
      "ĠFollow": 6098,
      "Ġstyle": 6099,
      "Ġdaisies": 6100,
      "ĠChristmas": 6101,
      "Ġpistol": 6102,
      "ĠWednesday": 6103,
      "Ġteaspoon": 6104,
      "Days": 6105,
      "Fr": 6106,
      "Sophie": 6107,
      "bric": 6108,
      "ivery": 6109,
      "njoy": 6110,
      "hee": 6111,
      "Ġast": 6112,
      "Ġhi": 6113,
      "ouch": 6114,
      "Ġcent": 6115,
      "Ġcough": 6116,
      "arter": 6117,
      "Ġsobbed": 6118,
      "ĠBoun": 6119,
      "ĠMa": 6120,
      "Ġsmarter": 6121,
      "ĠJamie": 6122,
      "opes": 6123,
      "Ġfever": 6124,
      "Ġmane": 6125,
      "ason": 6126,
      "Ġworries": 6127,
      "Ġfabric": 6128,
      "Ġswooped": 6129,
      "ĠEarth": 6130,
      "aker": 6131,
      "Ġcomm": 6132,
      "Ġsnugg": 6133,
      "ÅĵMommy": 6134,
      "Ġstolen": 6135,
      "Ġfoods": 6136,
      "Ġyelling": 6137,
      "itches": 6138,
      "Ġprinting": 6139,
      "Ġarrive": 6140,
      "Ġmatching": 6141,
      "Ġpointy": 6142,
      "Ġcreating": 6143,
      "Ġguest": 6144,
      "angled": 6145,
      "Ġpockets": 6146,
      "Ġexpect": 6147,
      "Ġspraying": 6148,
      "Grace": 6149,
      "Ġmovies": 6150,
      "Ġrescued": 6151,
      "Ġbumps": 6152,
      "Ġsneaked": 6153,
      "Ġcompletely": 6154,
      "Ġobjects": 6155,
      "Ġmasks": 6156,
      "Ġphotos": 6157,
      "Ġcrowd": 6158,
      "ĠSharing": 6159,
      "ĠRover": 6160,
      "Ġfireworks": 6161,
      "Excuse": 6162,
      "ĠBirdy": 6163,
      "Ġsatisfied": 6164,
      "Ġmineral": 6165,
      "Yeah": 6166,
      "Ġventured": 6167,
      "Ġsnatched": 6168,
      "Lola": 6169,
      "Un": 6170,
      "cers": 6171,
      "eep": 6172,
      "jo": 6173,
      "sc": 6174,
      "Ëľ": 6175,
      "Ġaff": 6176,
      "Ġdent": 6177,
      "ĠTess": 6178,
      "ĠTilly": 6179,
      "ĠSure": 6180,
      "ĠyouÃ¢": 6181,
      "Ġwept": 6182,
      "ĠBye": 6183,
      "Ġshined": 6184,
      "Ġboom": 6185,
      "âĤ¬Ëľ": 6186,
      "bbly": 6187,
      "obble": 6188,
      "Ġbravery": 6189,
      "ÅĵWhy": 6190,
      "Ġdelivery": 6191,
      "Ġusually": 6192,
      "Ġcracked": 6193,
      "Ġtouching": 6194,
      "Ġstaring": 6195,
      "Ġstarfish": 6196,
      "Ġinviting": 6197,
      "Ġnetwork": 6198,
      "Ġmelting": 6199,
      "Ġseems": 6200,
      "Ġdelivered": 6201,
      "Ġpumpkins": 6202,
      "Ġshivering": 6203,
      "Ġcamping": 6204,
      "Ġherbs": 6205,
      "Ġsiren": 6206,
      "ÅĵDonÃ¢": 6207,
      "Ġtipt": 6208,
      "Ġfarther": 6209,
      "Ġcontrol": 6210,
      "Cl": 6211,
      "Dave": 6212,
      "Ella": 6213,
      "Fred": 6214,
      "band": 6215,
      "eke": 6216,
      "go": 6217,
      "pite": 6218,
      "ux": 6219,
      "ĠY": 6220,
      "Ġsway": 6221,
      "Ġwre": 6222,
      "Ġfreed": 6223,
      "Ġlux": 6224,
      "ern": 6225,
      "cky": 6226,
      "Ġonions": 6227,
      "ĠItÃ¢": 6228,
      "Ġseven": 6229,
      "Ġcans": 6230,
      "Ġleather": 6231,
      "elle": 6232,
      "usband": 6233,
      "Ġcatches": 6234,
      "Ġpeaches": 6235,
      "ÅĵOh": 6236,
      "Ġexplorers": 6237,
      "Ġtractor": 6238,
      "aced": 6239,
      "Ġpaintings": 6240,
      "Ġscreaming": 6241,
      "Ġteaches": 6242,
      "Ġcaused": 6243,
      "Ġinterested": 6244,
      "Ġcheering": 6245,
      "Ġspeaking": 6246,
      "ĠAnne": 6247,
      "Ġclowns": 6248,
      "ĠPepper": 6249,
      "Ġunpacked": 6250,
      "Ġnails": 6251,
      "Ġscrews": 6252,
      "Ġfluttered": 6253,
      "ĠSuzie": 6254,
      "abel": 6255,
      "Ġquacked": 6256,
      "ĠSadly": 6257,
      "Ġvictory": 6258,
      "Ġsituation": 6259,
      "Alex": 6260,
      "aa": 6261,
      "boo": 6262,
      "een": 6263,
      "uke": 6264,
      "Ġbars": 6265,
      "Ġbunch": 6266,
      "Ġmer": 6267,
      "igning": 6268,
      "Ġrising": 6269,
      "Ġrumble": 6270,
      "ĠMany": 6271,
      "Ġspong": 6272,
      "ĠJon": 6273,
      "opsy": 6274,
      "Ġchuck": 6275,
      "Ġstrings": 6276,
      "ĠChe": 6277,
      "Ġforehead": 6278,
      "Ġkeeper": 6279,
      "Ġtowels": 6280,
      "Ġruin": 6281,
      "Ġcontest": 6282,
      "Ġreluctantly": 6283,
      "Ġpatience": 6284,
      "Ġgrowling": 6285,
      "Ġsupplies": 6286,
      "Ġcelebration": 6287,
      "Ġprayer": 6288,
      "Ġdetermination": 6289,
      "Ġhorns": 6290,
      "Ġreply": 6291,
      "Ġinclude": 6292,
      "Ġdiscussed": 6293,
      "Ġribbons": 6294,
      "Ġgaze": 6295,
      "Tweety": 6296,
      "ĠUnfortunately": 6297,
      "urious": 6298,
      "Ġtiptoed": 6299,
      "Even": 6300,
      "Fin": 6301,
      "Kate": 6302,
      "Sad": 6303,
      "ĠĠĊ": 6304,
      "Ġcash": 6305,
      "Ġcott": 6306,
      "ords": 6307,
      "Ġstern": 6308,
      "Ġplenty": 6309,
      "Ġsoak": 6310,
      "Ġsoaked": 6311,
      "Ġlied": 6312,
      "Ġscient": 6313,
      "ĠFriends": 6314,
      "Ġknowled": 6315,
      "Ġsnuck": 6316,
      "Ġsnakes": 6317,
      "ĠJacky": 6318,
      "Ġgrant": 6319,
      "ÅĵThis": 6320,
      "Ġcolored": 6321,
      "Ġwritten": 6322,
      "ĠNick": 6323,
      "Ġyells": 6324,
      "Ġpretends": 6325,
      "Ġtails": 6326,
      "Ġmarked": 6327,
      "Ġmarriage": 6328,
      "Ġbowls": 6329,
      "Ġreaching": 6330,
      "Ġneighbours": 6331,
      "Ġmarkers": 6332,
      "Ġcoloured": 6333,
      "ĠOut": 6334,
      "Ġpassen": 6335,
      "Ġdiving": 6336,
      "Ġprotecting": 6337,
      "Ġwipes": 6338,
      "Ġadding": 6339,
      "Ġindeed": 6340,
      "Ġrecorded": 6341,
      "Ġarrows": 6342,
      "Ġimproved": 6343,
      "Ġseconds": 6344,
      "Ġsandcastles": 6345,
      "Ġintroduce": 6346,
      "Ġgroceries": 6347,
      "Ġhesitated": 6348,
      "Ġannoy": 6349,
      "Ġactivities": 6350,
      "ĠRabbit": 6351,
      "Ġreleased": 6352,
      "Ġcautiously": 6353,
      "Ġtimer": 6354,
      "Ġscientist": 6355,
      "Ġknowledge": 6356,
      "Henry": 6357,
      "ury": 6358,
      "Ġtour": 6359,
      "Ġhoo": 6360,
      "Ġhusband": 6361,
      "Ġwasted": 6362,
      "Ġglee": 6363,
      "ĠSunny": 6364,
      "llen": 6365,
      "Ġshock": 6366,
      "Ġnect": 6367,
      "ĠAbbie": 6368,
      "icorn": 6369,
      "?\",": 6370,
      "ĠJacob": 6371,
      "Ġscales": 6372,
      "ĠWatch": 6373,
      "Ġfault": 6374,
      "Ġswirl": 6375,
      "Ġblink": 6376,
      "Ġwilling": 6377,
      "iley": 6378,
      "Ġfoc": 6379,
      "oys": 6380,
      "Ġunicorn": 6381,
      "ĠGr": 6382,
      "Ġcloses": 6383,
      "Ġreplaced": 6384,
      "Ġrainco": 6385,
      "Ġarr": 6386,
      "Ġsingle": 6387,
      "Ġresting": 6388,
      "Ġrestored": 6389,
      "Ġhides": 6390,
      "Ġmuscle": 6391,
      "Ġpatted": 6392,
      "Ġforgetting": 6393,
      "hog": 6394,
      "Ġdesert": 6395,
      "Ġwraps": 6396,
      "ĠOllie": 6397,
      "Ġgracefully": 6398,
      "Ġscratches": 6399,
      "Ġhedgehog": 6400,
      "Ġavoid": 6401,
      "ĠRobbie": 6402,
      "Ġstomped": 6403,
      "Ġtwinkle": 6404,
      "ĠGoodbye": 6405,
      "Ġperforman": 6406,
      "Ġfamilies": 6407,
      "Ġfetch": 6408,
      "Ġscrubbed": 6409,
      "Ġsponge": 6410,
      "Ġnectar": 6411,
      "Ġraincoat": 6412,
      "Maggie": 6413,
      "Uh": 6414,
      "lay": 6415,
      "oh": 6416,
      "pare": 6417,
      "zes": 6418,
      "Ġty": 6419,
      "Ġdipped": 6420,
      "Ġpause": 6421,
      "aty": 6422,
      "Ġaren": 6423,
      "urry": 6424,
      "ica": 6425,
      "ĠJessie": 6426,
      "asm": 6427,
      "Ġlearns": 6428,
      "maid": 6429,
      "Ġtramp": 6430,
      "Ġtexture": 6431,
      "ĠPut": 6432,
      "Ġunf": 6433,
      "ĠGary": 6434,
      "Ġsmiley": 6435,
      "Ġdef": 6436,
      "Ġdeal": 6437,
      "Ġbuying": 6438,
      "Ġthreat": 6439,
      "Ġprincesses": 6440,
      "Ġpots": 6441,
      "Ġnapkins": 6442,
      "ĠwouldnÃ¢": 6443,
      "Ġactions": 6444,
      "izzie": 6445,
      "Ġpleasure": 6446,
      "Ġpoliceman": 6447,
      "Ġradishes": 6448,
      "ĠBuzzy": 6449,
      "Ġrecording": 6450,
      "rops": 6451,
      "Ġsneaky": 6452,
      "Ġsausages": 6453,
      "Charlie": 6454,
      "Ġstroll": 6455,
      "Ġstroked": 6456,
      "ĠJulia": 6457,
      "Ġdrifted": 6458,
      "Ġtoddler": 6459,
      "Ġdentist": 6460,
      "Ġmermaid": 6461,
      "Ġchuckled": 6462,
      "Ġtrampoline": 6463,
      "Mrs": 6464,
      "Rose": 6465,
      "die": 6466,
      "sure": 6467,
      "Ġtuck": 6468,
      "Ġtangled": 6469,
      "Ġwow": 6470,
      "Ġwobble": 6471,
      "Ġdam": 6472,
      "Ġmi": 6473,
      "Ġmarshmallow": 6474,
      "esome": 6475,
      "Ġweeke": 6476,
      "indrops": 6477,
      "Ġbacked": 6478,
      "Ġnodd": 6479,
      "ickey": 6480,
      "Ġsomebody": 6481,
      "Ġstartled": 6482,
      "Ġfaced": 6483,
      "iece": 6484,
      "ĠEnjoy": 6485,
      "ĠFor": 6486,
      "Ġsled": 6487,
      "Ġhandful": 6488,
      "Ġraindrops": 6489,
      "Ġshoulders": 6490,
      "ĠPo": 6491,
      "ĠPipp": 6492,
      "Ġunited": 6493,
      "Ġuses": 6494,
      "Ġcuts": 6495,
      "Ġdarker": 6496,
      "Ġdrives": 6497,
      "Ġhider": 6498,
      "Ġcreamy": 6499,
      "Ġmisses": 6500,
      "Ġpaths": 6501,
      "ĠOt": 6502,
      "ĠOw": 6503,
      "Ġcelebrating": 6504,
      "Ġtested": 6505,
      "Ġvalued": 6506,
      "Ġcrabs": 6507,
      "Ġcandies": 6508,
      "Ġtickled": 6509,
      "Grandpa": 6510,
      "Ġsquares": 6511,
      "Ġforks": 6512,
      "Ġbatteries": 6513,
      "Ġtempt": 6514,
      "Ġtricky": 6515,
      "Ġawake": 6516,
      "Ġagrees": 6517,
      "Shh": 6518,
      "Ġwiggled": 6519,
      "Ġhesitant": 6520,
      "ĠOlive": 6521,
      "Ġlungs": 6522,
      "Ġcalmed": 6523,
      "Ġaccomplish": 6524,
      "Ġpaddled": 6525,
      "Ġafford": 6526,
      "Ġperformance": 6527,
      "Ġmarshmallows": 6528,
      "Ġweekend": 6529,
      "?'": 6530,
      "Bet": 6531,
      "Ducky": 6532,
      "blings": 6533,
      "cake": 6534,
      "pit": 6535,
      "sie": 6536,
      "tuce": 6537,
      "Ġsense": 6538,
      "Ġnine": 6539,
      "Ġthird": 6540,
      "Ġropes": 6541,
      "Ġplayers": 6542,
      "Ġwears": 6543,
      "ĠBo": 6544,
      "itted": 6545,
      "Ġkites": 6546,
      "ĠMel": 6547,
      "Ġseals": 6548,
      "Ġgoals": 6549,
      "inda": 6550,
      "ĠcanÃ¢": 6551,
      "umm": 6552,
      "Ġrobb": 6553,
      "ĠWater": 6554,
      "ĠLaura": 6555,
      "ĠEl": 6556,
      "Ġglitter": 6557,
      "Ġlettuce": 6558,
      "Ġrail": 6559,
      "Ġremoved": 6560,
      "Ġjoking": 6561,
      "Ġowners": 6562,
      "Ġruining": 6563,
      "Ġsquish": 6564,
      "ĠJohnson": 6565,
      "Ġreads": 6566,
      "Ġtallest": 6567,
      "ĠKayla": 6568,
      "Ġyesterday": 6569,
      "Ġsigned": 6570,
      "Ġsecure": 6571,
      "brush": 6572,
      "Ġpacking": 6573,
      "ments": 6574,
      "Ġbuckets": 6575,
      "Ġgrandpare": 6576,
      "ĠOwl": 6577,
      "ĠBeing": 6578,
      "Ġborrowed": 6579,
      "Ġpeeking": 6580,
      "Ġblooming": 6581,
      "Ġbreathed": 6582,
      "Ġgiraff": 6583,
      "Ġawesome": 6584,
      "Ġartist": 6585,
      "Ġseason": 6586,
      "Ġsiblings": 6587,
      "ĠUncle": 6588,
      "Ġmaterials": 6589,
      "Ġforgiven": 6590,
      "Ġopinion": 6591,
      "Ġconcert": 6592,
      "Ġsnuggle": 6593,
      "Ġgiraffes": 6594,
      "Boo": 6595,
      "Jul": 6596,
      "Paul": 6597,
      "Wh": 6598,
      "bird": 6599,
      "dies": 6600,
      "iel": 6601,
      "tle": 6602,
      "Ġtig": 6603,
      "Ġlower": 6604,
      "Ġocc": 6605,
      "oni": 6606,
      "Ġech": 6607,
      "Ġeast": 6608,
      "Ġrisk": 6609,
      "Ġbead": 6610,
      "Ġyouth": 6611,
      "ĠBoth": 6612,
      "Ġnotes": 6613,
      "ĠMaddy": 6614,
      "Ġrepa": 6615,
      "idey": 6616,
      "Ġloops": 6617,
      "Ġleast": 6618,
      "ashed": 6619,
      "Ġlap": 6620,
      "Ġyourselves": 6621,
      "Ġdads": 6622,
      "ĠFar": 6623,
      "Ġskill": 6624,
      "Ġbully": 6625,
      "Ġsnail": 6626,
      "emma": 6627,
      "Ġdollars": 6628,
      "ĠPrin": 6629,
      "Ġunsure": 6630,
      "ĠGet": 6631,
      "Ġimportance": 6632,
      "Ġblocking": 6633,
      "Ġbehavi": 6634,
      "Ġgrassy": 6635,
      "Ġmagician": 6636,
      "Ġtablet": 6637,
      "Ġmarks": 6638,
      "Ġmiles": 6639,
      "Ġzookeeper": 6640,
      "Ġsplashes": 6641,
      "Ġscaring": 6642,
      "Ġscarves": 6643,
      "Ġembarrass": 6644,
      "Ġhonked": 6645,
      "Ġseeker": 6646,
      "Ġsource": 6647,
      "Ġsquealed": 6648,
      "Ġlogs": 6649,
      "Ġswans": 6650,
      "Ġjackets": 6651,
      "Ġcushions": 6652,
      "Ġlollipops": 6653,
      "Ġhallway": 6654,
      "Ġfluttering": 6655,
      "Ġtwinkling": 6656,
      "Ġincrease": 6657,
      "Leo": 6658,
      "Ġbeginning": 6659,
      "Maria": 6660,
      "melia": 6661,
      "Ġcousin": 6662,
      "Ġluxury": 6663,
      "Ġcashier": 6664,
      "Ġmixture": 6665,
      "Ġtigers": 6666,
      "Ġrepaired": 6667,
      "Bl": 6668,
      "Gre": 6669,
      "Run": 6670,
      "Sandy": 6671,
      "Toby": 6672,
      "rig": 6673,
      "uzzy": 6674,
      "Ġcause": 6675,
      "Ġden": 6676,
      "iled": 6677,
      "ĠSmo": 6678,
      "ans": 6679,
      "ira": 6680,
      "ĠBinky": 6681,
      "Ġreass": 6682,
      "Ġlosing": 6683,
      "ĠJune": 6684,
      "aret": 6685,
      "Ġchop": 6686,
      "Ġchips": 6687,
      "Ġslam": 6688,
      "Those": 6689,
      "Ġteles": 6690,
      "ÅĵDo": 6691,
      "Ġdrawn": 6692,
      "Ġrocking": 6693,
      "Ġremembering": 6694,
      "Ġusual": 6695,
      "ĠRalph": 6696,
      "Ġworker": 6697,
      "Ġsticking": 6698,
      "ĠNora": 6699,
      "Ġamount": 6700,
      "Ġtricked": 6701,
      "Ġfilling": 6702,
      "Ġslower": 6703,
      "Ġfairies": 6704,
      "ĠKeep": 6705,
      "Ġhealth": 6706,
      "Ġhopeful": 6707,
      "Ġshrinking": 6708,
      "Ġfolding": 6709,
      "ĠBecky": 6710,
      "Ġdrums": 6711,
      "ĠZara": 6712,
      "Ġpaying": 6713,
      "Ġwandering": 6714,
      "Ġknocks": 6715,
      "Ġhelmets": 6716,
      "Ġsymbols": 6717,
      "Ġencourag": 6718,
      "Ġshelves": 6719,
      "Ġcheeks": 6720,
      "ÅĵYouÃ¢": 6721,
      "Ġwiggle": 6722,
      "Ġachieved": 6723,
      "Roar": 6724,
      "ĠQuick": 6725,
      "Ġpuppies": 6726,
      "iki": 6727,
      "Ġscraped": 6728,
      "Ġdeserve": 6729,
      "Ġtelescope": 6730,
      "An": 6731,
      "By": 6732,
      "Bad": 6733,
      "Claire": 6734,
      "During": 6735,
      "Katie": 6736,
      "Millie": 6737,
      "Tina": 6738,
      "cited": 6739,
      "nk": 6740,
      "hello": 6741,
      "Ġtiss": 6742,
      "Ġaud": 6743,
      "Ġwest": 6744,
      "Ġlimes": 6745,
      "Ġdie": 6746,
      "Ġdots": 6747,
      "Ġsank": 6748,
      "ĠSophia": 6749,
      "ĠHannah": 6750,
      "Ġstitches": 6751,
      "ades": 6752,
      "Ġplaytime": 6753,
      "allowed": 6754,
      "Ġneither": 6755,
      "Ġexcept": 6756,
      "ĠJan": 6757,
      "ops": 6758,
      "Ġfears": 6759,
      "Ġroars": 6760,
      "ĠLuckily": 6761,
      "ĠListen": 6762,
      "Ġswallowed": 6763,
      "Ġblast": 6764,
      "Ġtwenty": 6765,
      "Ġuntie": 6766,
      "Ġadult": 6767,
      "ĠPandy": 6768,
      "Ġconn": 6769,
      "Ġafterwards": 6770,
      "ths": 6771,
      "Ġparties": 6772,
      "ĠEmmy": 6773,
      "Ġtalks": 6774,
      "Ġpolished": 6775,
      "Ġproject": 6776,
      "Ġnaps": 6777,
      "Ġmarker": 6778,
      "Ġresults": 6779,
      "Ġcoral": 6780,
      "ĠZoomy": 6781,
      "Ġwishing": 6782,
      "Ġtunnels": 6783,
      "Ġcorners": 6784,
      "Ġzipping": 6785,
      "Ġresisted": 6786,
      "Ġdelivering": 6787,
      "ronaut": 6788,
      "Ġcomplained": 6789,
      "Ġrewarded": 6790,
      "Ġexperi": 6791,
      "Ġburst": 6792,
      "Ġtraveled": 6793,
      "Ġsports": 6794,
      "Ġgrowls": 6795,
      "Ġrusty": 6796,
      "Ġsnowballs": 6797,
      "Ġgeese": 6798,
      "ĠMatt": 6799,
      "Ġpouted": 6800,
      "Ġastronaut": 6801,
      "Unfortunately": 6802,
      "rigued": 6803,
      "Danny": 6804,
      "For": 6805,
      "Have": 6806,
      "Pe": 6807,
      "Some": 6808,
      "fire": 6809,
      "ippy": 6810,
      "lves": 6811,
      "Ġwins": 6812,
      "Ġhitting": 6813,
      "immer": 6814,
      "order": 6815,
      "Ġinsp": 6816,
      "Ġrings": 6817,
      "Ġstem": 6818,
      "river": 6819,
      "ados": 6820,
      "choo": 6821,
      "endy": 6822,
      "ĠĊĠ": 6823,
      "ĠJay": 6824,
      "Ġleap": 6825,
      "Ġcoach": 6826,
      "ĠLinda": 6827,
      "Ġtreehouse": 6828,
      "aula": 6829,
      "Ġslices": 6830,
      "Ġquilt": 6831,
      "Ġstays": 6832,
      "aste": 6833,
      "Ġwindy": 6834,
      "ĠSpidey": 6835,
      "Ġargu": 6836,
      "Ġbeloved": 6837,
      "Ġsteer": 6838,
      "ĠFlora": 6839,
      "Ġfoxes": 6840,
      "Ġplans": 6841,
      "Ġchoices": 6842,
      "Ġrespond": 6843,
      "ĠThanks": 6844,
      "Ġwrapping": 6845,
      "Ġmatters": 6846,
      "Ġsalty": 6847,
      "ĠLeave": 6848,
      "Ġsuggest": 6849,
      "Ġperforming": 6850,
      "Ġleaning": 6851,
      "Ġbasement": 6852,
      "Ġseparated": 6853,
      "Ġavocados": 6854,
      "Ġrepeats": 6855,
      "Ġinstrum": 6856,
      "Ġsewed": 6857,
      "Ġfamiliar": 6858,
      "ĠNothing": 6859,
      "Ġchefs": 6860,
      "Ġ10": 6861,
      "Ġwreck": 6862,
      "Ġpassengers": 6863,
      "Ġarranged": 6864,
      "ĠPippin": 6865,
      "Ġaccomplishment": 6866,
      "Ġaudience": 6867,
      "Ġarguing": 6868,
      "Car": 6869,
      "Our": 6870,
      "Whee": 6871,
      "abby": 6872,
      "cl": 6873,
      "ded": 6874,
      "no": 6875,
      "wk": 6876,
      "yan": 6877,
      "Ġlined": 6878,
      "Ġcust": 6879,
      "Ġmes": 6880,
      "ĠTwo": 6881,
      "Ġoh": 6882,
      "Ġgest": 6883,
      "Ġhawk": 6884,
      "Ġrus": 6885,
      "Ġstool": 6886,
      "Ġyounger": 6887,
      "step": 6888,
      "ĠBaa": 6889,
      "ĠMickey": 6890,
      "Ġgobbled": 6891,
      "Ġworn": 6892,
      "Ġcond": 6893,
      "Ġflapping": 6894,
      "ĠLuke": 6895,
      "essica": 6896,
      "retty": 6897,
      "Ġintrigued": 6898,
      "Ġpebbles": 6899,
      "ÅĵMom": 6900,
      "ÅĵMy": 6901,
      "Ġdancers": 6902,
      "Ġbelts": 6903,
      "Ġcolder": 6904,
      "ĠFlopsy": 6905,
      "umbling": 6906,
      "Ġexpress": 6907,
      "Ġwarri": 6908,
      "Ġacting": 6909,
      "Ġhoriz": 6910,
      "Ġrecorder": 6911,
      "Ġbanged": 6912,
      "Ġpans": 6913,
      "Ġcrossing": 6914,
      "ĠStar": 6915,
      "Ġexamining": 6916,
      "Ġglasses": 6917,
      "Ġedges": 6918,
      "Ġerase": 6919,
      "Meow": 6920,
      "weed": 6921,
      "Ġoysters": 6922,
      "Ġsurrendered": 6923,
      "Ġprovided": 6924,
      "Ġsuffered": 6925,
      "Ġpresses": 6926,
      "Chloe": 6927,
      "Ġlicking": 6928,
      "Ġincluding": 6929,
      "Ġfirefighter": 6930,
      "Ġdirect": 6931,
      "Ġwarnings": 6932,
      "Ġflavor": 6933,
      "Ġswimsuit": 6934,
      "Ġheavier": 6935,
      "Ġsquishy": 6936,
      "Ġoccas": 6937,
      "Ġechoed": 6938,
      "Ġbeads": 6939,
      "Ġcustom": 6940,
      "Ġmesmer": 6941,
      "Bunny": 6942,
      "Ew": 6943,
      "Hannah": 6944,
      "Milly": 6945,
      "Rachel": 6946,
      "Tr": 6947,
      "Time": 6948,
      "aven": 6949,
      "bro": 6950,
      "eal": 6951,
      "ibbit": 6952,
      "ple": 6953,
      "tier": 6954,
      "vest": 6955,
      "yes": 6956,
      "Ġtil": 6957,
      "Ġhour": 6958,
      "Ġwadd": 6959,
      "Ġsale": 6960,
      "ĠSim": 6961,
      "ĠSleep": 6962,
      "onies": 6963,
      "irts": 6964,
      "Ġrip": 6965,
      "Ġhissed": 6966,
      "ntil": 6967,
      "sequ": 6968,
      "Ġrefu": 6969,
      "ĠAbby": 6970,
      "ĠAmelia": 6971,
      "Ġflight": 6972,
      "ĠLizzie": 6973,
      "Ġswords": 6974,
      "Ġeverybody": 6975,
      "using": 6976,
      "Ġpecked": 6977,
      "Ġtwice": 6978,
      "Ġprettier": 6979,
      "ĠEverybody": 6980,
      "Ġteased": 6981,
      "Ġconsequ": 6982,
      "Ġcrew": 6983,
      "Ġcreations": 6984,
      "Ġhandsome": 6985,
      "ĠSpark": 6986,
      "ĠNina": 6987,
      "Ġdresser": 6988,
      "Ġsteady": 6989,
      "Ġelf": 6990,
      "Ġsailors": 6991,
      "ĠwonÃ¢": 6992,
      "Ġplanning": 6993,
      "Ġwinked": 6994,
      "Ġseaweed": 6995,
      "Ġmints": 6996,
      "Ġpops": 6997,
      "ĠWithout": 6998,
      "Ġfeeding": 6999,
      "Ġvanish": 7000,
      "Ġsneezing": 7001,
      "ĠSnap": 7002,
      "Ġsniffs": 7003,
      "ÅĵWhatÃ¢": 7004,
      "Ġcampfire": 7005,
      "Ġwires": 7006,
      "Ġlanguages": 7007,
      "Ġobserved": 7008,
      "Ġsuperheroes": 7009,
      "Ġvideos": 7010,
      "ably": 7011,
      "ĠFox": 7012,
      "ĠQuack": 7013,
      "Ġwidened": 7014,
      "ĠPrincess": 7015,
      "Ġwarrior": 7016,
      "Ġhorizon": 7017,
      "Bun": 7018,
      "Harry": 7019,
      "Jamie": 7020,
      "Like": 7021,
      "cter": 7022,
      "driver": 7023,
      "now": 7024,
      "oss": 7025,
      "ĊĊ": 7026,
      "Ġaimed": 7027,
      "eds": 7028,
      "Ġtouc": 7029,
      "initely": 7030,
      "Ġmerry": 7031,
      "Ġponies": 7032,
      "Ġopp": 7033,
      "arling": 7034,
      "ids": 7035,
      "ĠSal": 7036,
      "ĠSque": 7037,
      "ann": 7038,
      "Ġthorn": 7039,
      "lect": 7040,
      "Ġplayroom": 7041,
      "ĠBee": 7042,
      "child": 7043,
      "Ġshoo": 7044,
      "Ġneare": 7045,
      "Ġfeast": 7046,
      "Ġflipped": 7047,
      "ept": 7048,
      "Ġchip": 7049,
      "Ġswept": 7050,
      "Ġgrabbing": 7051,
      "Ġpeck": 7052,
      "Ġslither": 7053,
      "obody": 7054,
      "ĠJojo": 7055,
      "Ġadults": 7056,
      "Ġbraver": 7057,
      "Ġwobbly": 7058,
      "ÅĵCome": 7059,
      "Ġfinal": 7060,
      "ipes": 7061,
      "ĠPudd": 7062,
      "Ġnearly": 7063,
      "Ġache": 7064,
      "ĠNana": 7065,
      "athan": 7066,
      "Ġfroze": 7067,
      "Ġcreativ": 7068,
      "Ġcupcakes": 7069,
      "Ġmailed": 7070,
      "Ġimagining": 7071,
      "Ġgrandchild": 7072,
      "Ġpeacefully": 7073,
      "ĠOur": 7074,
      "Ġpours": 7075,
      "Ġmotion": 7076,
      "Ġbells": 7077,
      "Ġgenie": 7078,
      "Ġpraying": 7079,
      "ĠZip": 7080,
      "Ġleads": 7081,
      "Ġvanilla": 7082,
      "Ġsuits": 7083,
      "ĠBluey": 7084,
      "Ġthud": 7085,
      "ĠMikey": 7086,
      "Ġscrewdriver": 7087,
      "Ġbuzzed": 7088,
      "Ġsurroundings": 7089,
      "Ġrequested": 7090,
      "Ġcobwebs": 7091,
      "Ġrecommended": 7092,
      "ĠRobin": 7093,
      "Ġefforts": 7094,
      "Ġincreased": 7095,
      "Ġperformed": 7096,
      "Ġbehaved": 7097,
      "Ġseashells": 7098,
      "Ġfirmly": 7099,
      "Ġcommun": 7100,
      "ĠGranny": 7101,
      "Ġdefinitely": 7102,
      "Ġnodding": 7103,
      "Ġencouraging": 7104,
      "Ġconsequences": 7105,
      "Ġcreativity": 7106,
      "--": 7107,
      "Dan": 7108,
      "Fine": 7109,
      "Nemo": 7110,
      "ae": 7111,
      "ew": 7112,
      "eel": 7113,
      "father": 7114,
      "gain": 7115,
      "ky": 7116,
      "vas": 7117,
      "int": 7118,
      "itude": 7119,
      "Ġdot": 7120,
      "Ġdarling": 7121,
      "Ġmunch": 7122,
      "ĠTe": 7123,
      "ĠTake": 7124,
      "ility": 7125,
      "Ġgross": 7126,
      "ĠSun": 7127,
      "ley": 7128,
      "Ġbeam": 7129,
      "Ġstair": 7130,
      "ĠMon": 7131,
      "ĠMila": 7132,
      "Ġreason": 7133,
      "Ġspy": 7134,
      "Ġspook": 7135,
      "Ġspikes": 7136,
      "Ġspills": 7137,
      "icia": 7138,
      "Ġhelpers": 7139,
      "Ġbackwards": 7140,
      "Ġnoon": 7141,
      "Ġscamp": 7142,
      "Ġscored": 7143,
      "Ġroses": 7144,
      "Ġcoc": 7145,
      "Ġflown": 7146,
      "Ġflips": 7147,
      "Ġchara": 7148,
      "ĠEx": 7149,
      "ĠFuzzy": 7150,
      "Ġpose": 7151,
      "Ġposit": 7152,
      "Ġexplo": 7153,
      "Ġglued": 7154,
      "ÅĵNow": 7155,
      "Ġbadge": 7156,
      "ĠGemma": 7157,
      "acy": 7158,
      "Ġstrongest": 7159,
      "Ġheading": 7160,
      "Ġstorekeeper": 7161,
      "Ġdrawers": 7162,
      "Ġfills": 7163,
      "ggies": 7164,
      "Ġveggies": 7165,
      "Ġvisitor": 7166,
      "Ġpennies": 7167,
      "anging": 7168,
      "Ġattack": 7169,
      "Ġrivers": 7170,
      "Ġlifts": 7171,
      "Ġlifting": 7172,
      "Ġgrandfather": 7173,
      "ĠAlthough": 7174,
      "Ġwiping": 7175,
      "Ġpanick": 7176,
      "Ġnervously": 7177,
      "Ġpizzas": 7178,
      "Ġclearly": 7179,
      "ĠStay": 7180,
      "Ġpostman": 7181,
      "Ġpedaled": 7182,
      "Ġsurfboard": 7183,
      "rnie": 7184,
      "Ġappreciated": 7185,
      "Ġzebras": 7186,
      "ĠRoger": 7187,
      "Ġdelayed": 7188,
      "Ġrefreshing": 7189,
      "Ġcomplaining": 7190,
      "ĠVroom": 7191,
      "ĠDaniel": 7192,
      "Ġaccomplished": 7193,
      "Ġbehaving": 7194,
      "ibly": 7195,
      "Ġtravelled": 7196,
      "Betty": 7197,
      "Ġgrandparents": 7198,
      "ĠFarmer": 7199,
      "Ġtissue": 7200,
      "broken": 7201,
      "Ġtouches": 7202,
      "Ġspooky": 7203,
      "Ġscampered": 7204,
      "Ġcharacter": 7205,
      "Ab": 7206,
      "Buddy": 7207,
      "Ralph": 7208,
      "belle": 7209,
      "found": 7210,
      "oc": 7211,
      "the": 7212,
      "va": 7213,
      "wise": 7214,
      "Ġ2": 7215,
      "Ġting": 7216,
      "Ġtying": 7217,
      "Ġfaded": 7218,
      "ition": 7219,
      "Ġlent": 7220,
      "Ġdet": 7221,
      "atur": 7222,
      "atul": 7223,
      "veral": 7224,
      "Ġev": 7225,
      "rie": 7226,
      "Ġdod": 7227,
      "ĠMouse": 7228,
      "Ġseveral": 7229,
      "Ġcanvas": 7230,
      "romise": 7231,
      "Ġmeals": 7232,
      "Ġbru": 7233,
      "Ġfact": 7234,
      "Ġflick": 7235,
      "ĠLarry": 7236,
      "plash": 7237,
      "ĠFire": 7238,
      "Ġsunsc": 7239,
      "Ġhanding": 7240,
      "Ġends": 7241,
      "Ġcheers": 7242,
      "Ġwobbled": 7243,
      "ÅĵHi": 7244,
      "Ġdances": 7245,
      "Ġconvers": 7246,
      "Ġwrink": 7247,
      "Ġunw": 7248,
      "ĠRemember": 7249,
      "ĠRiley": 7250,
      "ĠRyan": 7251,
      "Ġdressing": 7252,
      "Ġwarmly": 7253,
      "Ġlighter": 7254,
      "Ġbows": 7255,
      "Ġsnowmen": 7256,
      "Ġtables": 7257,
      "asha": 7258,
      "ĠKaren": 7259,
      "Ġelbow": 7260,
      "Ġpolitely": 7261,
      "uggy": 7262,
      "Ġprove": 7263,
      "Ġspoonful": 7264,
      "Ġbaskets": 7265,
      "Ġfits": 7266,
      "Ġimages": 7267,
      "Ġkicks": 7268,
      "Ġcowb": 7269,
      "Ġdived": 7270,
      "Ġantic": 7271,
      "Ġrecipe": 7272,
      "Ġleading": 7273,
      "Ġdesigned": 7274,
      "Ġsurfing": 7275,
      "Ġenthusi": 7276,
      "...\"": 7277,
      "Ġfirefly": 7278,
      "Ġsprinkled": 7279,
      "Ġemerged": 7280,
      "Ġpunishment": 7281,
      "Ġtalented": 7282,
      "Ġtravelling": 7283,
      "ĠBouncy": 7284,
      "Ġguests": 7285,
      "Clara": 7286,
      "Ġfreedom": 7287,
      "Ġgranted": 7288,
      "Ġinstruments": 7289,
      "Ġrushing": 7290,
      "Ġdirections": 7291,
      "Ġoccasion": 7292,
      "Ġsunscreen": 7293,
      "Any": 7294,
      "Back": 7295,
      "Dear": 7296,
      "Fo": 7297,
      "Lilly": 7298,
      "Nina": 7299,
      "Ru": 7300,
      "Su": 7301,
      "Santa": 7302,
      "Tony": 7303,
      "Yummy": 7304,
      "ael": 7305,
      "baby": 7306,
      "emy": 7307,
      "ollen": 7308,
      "Ġtar": 7309,
      "Ġties": 7310,
      "Ġfant": 7311,
      "inger": 7312,
      "idence": 7313,
      "ena": 7314,
      "ĠSorry": 7315,
      "ancy": 7316,
      "onnie": 7317,
      "lle": 7318,
      "ĠHolly": 7319,
      "ooking": 7320,
      "oosh": 7321,
      "ighing": 7322,
      "Ġrin": 7323,
      "rick": 7324,
      "ĠthatÃ¢": 7325,
      "Ġweeds": 7326,
      "ĠBessie": 7327,
      "elve": 7328,
      "unched": 7329,
      "Ġshall": 7330,
      "ugs": 7331,
      "Ġloc": 7332,
      "Ġbodies": 7333,
      "Ġjugg": 7334,
      "ĠAny": 7335,
      "Ġspices": 7336,
      "Ġmanag": 7337,
      "ĠWendy": 7338,
      "Ġtreated": 7339,
      "Ġage": 7340,
      "Ġdecl": 7341,
      "Ġswollen": 7342,
      "ĠDin": 7343,
      "Ġthoughts": 7344,
      "Ġtweet": 7345,
      "Ġenemy": 7346,
      "Ġovercome": 7347,
      "Ġsnort": 7348,
      "Ġbravest": 7349,
      "ÅĵHey": 7350,
      "Ġdollhouse": 7351,
      "aster": 7352,
      "ĠRicky": 7353,
      "Ġcouple": 7354,
      "ĠAsh": 7355,
      "Ġsmelling": 7356,
      "ichael": 7357,
      "Ġjud": 7358,
      "Ġjoyful": 7359,
      "Ġjobs": 7360,
      "Ġheartbroken": 7361,
      "Ġcaw": 7362,
      "Ġcausing": 7363,
      "Ġhonking": 7364,
      "ĠAli": 7365,
      "Ġaddress": 7366,
      "Ġsunflowers": 7367,
      "years": 7368,
      "Ġgems": 7369,
      "ĠFinny": 7370,
      "Ġmushrooms": 7371,
      "Ġfilms": 7372,
      "ĠUntil": 7373,
      "Ġinsisting": 7374,
      "Ġpassports": 7375,
      "Ġpurr": 7376,
      "Ġadmiration": 7377,
      "Ġspits": 7378,
      "Tweetie": 7379,
      "ĠFrog": 7380,
      "Ġdiscussing": 7381,
      "Ġcubes": 7382,
      "Ġpuppet": 7383,
      "perate": 7384,
      "rrr": 7385,
      "Ġgreeted": 7386,
      "Ġfocused": 7387,
      "Ġresponded": 7388,
      "Ġgesture": 7389,
      "Ġrefuse": 7390,
      "eeling": 7391,
      "Ġenthusiasm": 7392,
      "Ġfantastic": 7393,
      "Baby": 7394,
      "Cindy": 7395,
      "Jerry": 7396,
      "Karen": 7397,
      "May": 7398,
      "Maddy": 7399,
      "Tilly": 7400,
      "belt": 7401,
      "bage": 7402,
      "fall": 7403,
      "garet": 7404,
      "jack": 7405,
      "ker": 7406,
      "mered": 7407,
      "pen": 7408,
      "paste": 7409,
      "rince": 7410,
      "ratul": 7411,
      "while": 7412,
      "yond": 7413,
      "Ġtipped": 7414,
      "Ġcoug": 7415,
      "erm": 7416,
      "Ġpound": 7417,
      "isdom": 7418,
      "Ġgerm": 7419,
      "ĠSw": 7420,
      "iment": 7421,
      "espite": 7422,
      "utter": 7423,
      "Ġearn": 7424,
      "Ġease": 7425,
      "Ġund": 7426,
      "Ġbeyond": 7427,
      "Ġstall": 7428,
      "Ġstain": 7429,
      "Ġstumble": 7430,
      "Ġwithin": 7431,
      "Ġonward": 7432,
      "Ġsofter": 7433,
      "ading": 7434,
      "storm": 7435,
      "Ġshady": 7436,
      "Ġshirts": 7437,
      "lyn": 7438,
      "Ġkings": 7439,
      "ĠMan": 7440,
      "Ġanger": 7441,
      "ĠJe": 7442,
      "Ġlevers": 7443,
      "ĠWell": 7444,
      "ĠWigg": 7445,
      "ongratul": 7446,
      "ĠYouÃ¢": 7447,
      "Ġnewfound": 7448,
      "Ġprank": 7449,
      "Ġchanges": 7450,
      "Ġchanging": 7451,
      "usan": 7452,
      "aps": 7453,
      "Ġslips": 7454,
      "Ġwatering": 7455,
      "iona": 7456,
      "Ġglitt": 7457,
      "Ġbeautifully": 7458,
      "bee": 7459,
      "Ġraces": 7460,
      "ÅĵOkay": 7461,
      "ÅĵOf": 7462,
      "ĠPlay": 7463,
      "Ġexplorer": 7464,
      "Ġdefe": 7465,
      "Ġforgives": 7466,
      "Ġsandpit": 7467,
      "Ġcrashing": 7468,
      "Ġsnowfl": 7469,
      "Ġcloudy": 7470,
      "ugging": 7471,
      "Ġjoining": 7472,
      "Ġbaths": 7473,
      "ounced": 7474,
      "Ġforgets": 7475,
      "Ġdesigning": 7476,
      "Ġcomforting": 7477,
      "Ġgrandbaby": 7478,
      "Ġrobots": 7479,
      "Ġaction": 7480,
      "Ġseatbelt": 7481,
      "Ġ''": 7482,
      "Ġspreading": 7483,
      "Ġtidied": 7484,
      "Ġgarbage": 7485,
      "Ġwhispers": 7486,
      "Ġscram": 7487,
      "Ġprayers": 7488,
      "Ġchews": 7489,
      "ĠZee": 7490,
      "Ġangels": 7491,
      "Always": 7492,
      "ĠFreddie": 7493,
      "Ġsweep": 7494,
      "Ġtoothpaste": 7495,
      "Ġbreathing": 7496,
      "Ġneatly": 7497,
      "Ġawo": 7498,
      "Ġapplauding": 7499,
      "Ġlumberjack": 7500,
      "Ġyielded": 7501,
      "Quick": 7502,
      "Ġtrembled": 7503,
      "Ġsuffering": 7504,
      "ĠOliver": 7505,
      "Ġchatter": 7506,
      "Ġconfidence": 7507,
      "ĠBirdie": 7508,
      "Ġwider": 7509,
      "ĠCheese": 7510,
      "Ġcottage": 7511,
      "Ġannoyed": 7512,
      "Ġbehavior": 7513,
      "Ġconnected": 7514,
      "immering": 7515,
      "Ġevil": 7516,
      "Ġwrinkled": 7517,
      "Follow": 7518,
      "Abby": 7519,
      "Buzz": 7520,
      "Liz": 7521,
      "Listen": 7522,
      "Miss": 7523,
      "Rob": 7524,
      "hind": 7525,
      "lers": 7526,
      "mates": 7527,
      "uing": 7528,
      "upt": 7529,
      "uppy": 7530,
      "ĠX": 7531,
      "Ġaim": 7532,
      "Ġwag": 7533,
      "itched": 7534,
      "Ġdarl": 7535,
      "Ġdaring": 7536,
      "Ġheaven": 7537,
      "athy": 7538,
      "enced": 7539,
      "Ġni": 7540,
      "Ġnuzz": 7541,
      "ani": 7542,
      "anwhile": 7543,
      "Ġinter": 7544,
      "Ġstung": 7545,
      "Ġsteth": 7546,
      "rip": 7547,
      "Ġplucked": 7548,
      "ĠBri": 7549,
      "Ġshown": 7550,
      "Ġshallow": 7551,
      "ĠMad": 7552,
      "Ġknit": 7553,
      "ĠJessica": 7554,
      "ophone": 7555,
      "Ġscent": 7556,
      "Ġscores": 7557,
      "Ġmemb": 7558,
      "ĠWin": 7559,
      "ĠWil": 7560,
      "ĠWally": 7561,
      "Ġprob": 7562,
      "ĠLove": 7563,
      "Ġwhose": 7564,
      "Ġwhoever": 7565,
      "Ġcares": 7566,
      "Ġposs": 7567,
      "Ġposter": 7568,
      "Ġtwin": 7569,
      "ĠCle": 7570,
      "Ġcleared": 7571,
      "Ġpuff": 7572,
      "ÅĵWow": 7573,
      "ÅĵWell": 7574,
      "Ġfins": 7575,
      "Ġfinishing": 7576,
      "ĠPam": 7577,
      "ĠPuppy": 7578,
      "Ġconqu": 7579,
      "Ġtraps": 7580,
      "Ġbluebird": 7581,
      "acles": 7582,
      "ĠRain": 7583,
      "Ġsweetest": 7584,
      "Ġbiting": 7585,
      "ĠDog": 7586,
      "Ġthroughout": 7587,
      "Ġworrying": 7588,
      "Ġpromises": 7589,
      "Ġdropping": 7590,
      "Ġfloors": 7591,
      "ulars": 7592,
      "ĠKelly": 7593,
      "spe": 7594,
      "Ġunderstands": 7595,
      "oscope": 7596,
      "Ġvisitors": 7597,
      "Ġplanting": 7598,
      "Ġbeeh": 7599,
      "Ġdespite": 7600,
      "Ġdrivers": 7601,
      "Ġrespected": 7602,
      "Ġfootstep": 7603,
      "Steve": 7604,
      "Ġtrusting": 7605,
      "ĠAlong": 7606,
      "Ġdriveway": 7607,
      "Ġreminding": 7608,
      "ĠBea": 7609,
      "ĠBeep": 7610,
      "ĠStart": 7611,
      "ĠBruce": 7612,
      "Ġadds": 7613,
      "Ġsoapy": 7614,
      "Ġcrawls": 7615,
      "Ġhunting": 7616,
      "faction": 7617,
      "Remy": 7618,
      "Ġtwisty": 7619,
      "Ġsqueezing": 7620,
      "Ġdiamonds": 7621,
      "Ġsniffing": 7622,
      "Ġleopards": 7623,
      "Ġbinoc": 7624,
      "Ġvests": 7625,
      "ĠUnder": 7626,
      "Ġdisplayed": 7627,
      "ĠPatty": 7628,
      "Ġuniforms": 7629,
      "ĠRuss": 7630,
      "Ġsnaps": 7631,
      "ĠRobert": 7632,
      "ĠBirthday": 7633,
      "Ġsatisfaction": 7634,
      "Ġflavors": 7635,
      "Ġmeowing": 7636,
      "Ġgears": 7637,
      "Ġmaster": 7638,
      "Ġmasterp": 7639,
      "Frank": 7640,
      "Ġsternly": 7641,
      "ĠOther": 7642,
      "Ġrobber": 7643,
      "Ġrisks": 7644,
      "Blue": 7645,
      "Ġslammed": 7646,
      "Ġtilted": 7647,
      "Ġwaddled": 7648,
      "ĠSqueaky": 7649,
      "Ġanticip": 7650,
      "Ruby": 7651,
      "Ġscrambled": 7652,
      "Ġdarlings": 7653,
      "Ġstethoscope": 7654,
      "Ġmembers": 7655,
      "Ġprobably": 7656,
      "Ġfootsteps": 7657,
      "Ġbinoculars": 7658,
      "Adam": 7659,
      "Bu": 7660,
      "Beth": 7661,
      "Co": 7662,
      "Hop": 7663,
      "but": 7664,
      "bel": 7665,
      "bec": 7666,
      "ca": 7667,
      "ners": 7668,
      "xophone": 7669,
      "Ġic": 7670,
      "Ġtumbled": 7671,
      "Ġsy": 7672,
      "Ġbou": 7673,
      "Ġbound": 7674,
      "Ġfif": 7675,
      "Ġdump": 7676,
      "Ġpipes": 7677,
      "Ġnibb": 7678,
      "Ġsav": 7679,
      "Ġsadd": 7680,
      "Ġsaxophone": 7681,
      "ĠSa": 7682,
      "ori": 7683,
      "onse": 7684,
      "oto": 7685,
      "Ġyumm": 7686,
      "Ġrout": 7687,
      "Ġrather": 7688,
      "Ġramp": 7689,
      "Ġrott": 7690,
      "Ġplain": 7691,
      "stick": 7692,
      "ĠBuggy": 7693,
      "ĠMuff": 7694,
      "ĠMichael": 7695,
      "Ġaside": 7696,
      "Ġloses": 7697,
      "Ġscen": 7698,
      "ĠWisdom": 7699,
      "Ġcosy": 7700,
      "Ġcarriage": 7701,
      "Ġblond": 7702,
      "ĠDot": 7703,
      "ĠDina": 7704,
      "Ġvines": 7705,
      "Ġtaped": 7706,
      "ĠFiona": 7707,
      "Ġwaters": 7708,
      "Ġexplor": 7709,
      "ĠCla": 7710,
      "ÅĵSure": 7711,
      "Ġbadger": 7712,
      "ĠPup": 7713,
      "ĠPaula": 7714,
      "ĠPrince": 7715,
      "Ġconfu": 7716,
      "Ġconfl": 7717,
      "Ġconvin": 7718,
      "Ġthrown": 7719,
      "Ġtoward": 7720,
      "ĠNell": 7721,
      "ĠNobody": 7722,
      "Ġamong": 7723,
      "Ġblocked": 7724,
      "Ġcuriously": 7725,
      "Ġwarmer": 7726,
      "ĠThose": 7727,
      "Ġcounts": 7728,
      "Ġbuses": 7729,
      "issa": 7730,
      "ĠJaney": 7731,
      "Ġmonths": 7732,
      "Ġslowed": 7733,
      "rench": 7734,
      "Ġcompared": 7735,
      "Ġpaintbrush": 7736,
      "Ġwelcoming": 7737,
      "Ġbelieving": 7738,
      "Ġchopped": 7739,
      "Ġhealing": 7740,
      "Ġlunchbox": 7741,
      "Ġbandages": 7742,
      "Ġresponse": 7743,
      "Goodnight": 7744,
      "Ġshrunk": 7745,
      "Ġsolving": 7746,
      "Ġgasp": 7747,
      "Ġtidying": 7748,
      "Ġdigs": 7749,
      "Ġguessing": 7750,
      "Ġfrowning": 7751,
      "Ġunlo": 7752,
      "Ġcuddles": 7753,
      "ĠAlexa": 7754,
      "Ġtravels": 7755,
      "Ġsending": 7756,
      "ivia": 7757,
      "Ġbeeped": 7758,
      "ĠUp": 7759,
      "Ġtearing": 7760,
      "Ġexercises": 7761,
      "uctor": 7762,
      "Ġthumbs": 7763,
      "Ġrotting": 7764,
      "Ġlending": 7765,
      "Ġquarreling": 7766,
      "Ġpandas": 7767,
      "Ġstroke": 7768,
      "Ġburying": 7769,
      "Ġinsects": 7770,
      "Ġwhispering": 7771,
      "Ġtwinkled": 7772,
      "Excited": 7773,
      "Ġminerals": 7774,
      "Ġrustling": 7775,
      "Ġmaterial": 7776,
      "Ġcenter": 7777,
      "Sadly": 7778,
      "Ġhoops": 7779,
      "Ġtype": 7780,
      "Ġtextures": 7781,
      "Ġforgiveness": 7782,
      "Ġreassured": 7783,
      "Ġexperienced": 7784,
      "Ġconductor": 7785,
      "Ġmesmerized": 7786,
      "ĠSimon": 7787,
      "Ġtarget": 7788,
      "Ġdeclared": 7789,
      "Ġsnowflakes": 7790,
      "Ġbeehive": 7791,
      "Ġanticipation": 7792,
      "Ġbouqu": 7793,
      "Ġrotten": 7794,
      "ĠClaus": 7795,
      "Br": 7796,
      "Bill": 7797,
      "Honey": 7798,
      "Kayla": 7799,
      "Mat": 7800,
      "Mimi": 7801,
      "Oops": 7802,
      "Papa": 7803,
      "Since": 7804,
      "Too": 7805,
      "Take": 7806,
      "Watch": 7807,
      "cher": 7808,
      "gar": 7809,
      "rink": 7810,
      "whe": 7811,
      "well": 7812,
      "Ġsens": 7813,
      "Ġtheat": 7814,
      "inted": 7815,
      "Ġwakes": 7816,
      "Ġfain": 7817,
      "ouble": 7818,
      "ita": 7819,
      "its": 7820,
      "Ġmoo": 7821,
      "Ġpens": 7822,
      "Ġpouch": 7823,
      "ĠTry": 7824,
      "Ġgon": 7825,
      "ider": 7826,
      "ĠSuper": 7827,
      "ĠSusan": 7828,
      "Ġthir": 7829,
      "irrel": 7830,
      "Ġbeating": 7831,
      "ĠIm": 7832,
      "Ġsoot": 7833,
      "Ġweighing": 7834,
      "ĠBow": 7835,
      "ĠBecause": 7836,
      "Ġform": 7837,
      "Ġshave": 7838,
      "Ġdoves": 7839,
      "ĠĊĊ": 7840,
      "Ġboards": 7841,
      "Ġjay": 7842,
      "artin": 7843,
      "Ġcanes": 7844,
      "icles": 7845,
      "Ġali": 7846,
      "ĠWas": 7847,
      "ddie": 7848,
      "ĠButt": 7849,
      "Ġcarries": 7850,
      "Ġgoodies": 7851,
      "Ġcharge": 7852,
      "ĠErnie": 7853,
      "quirrel": 7854,
      "ĠFurry": 7855,
      "Ġposes": 7856,
      "bbling": 7857,
      "Ġtwelve": 7858,
      "Ġsmallest": 7859,
      "Ġfond": 7860,
      "Ġsnug": 7861,
      "Ġuntied": 7862,
      "ĠCurious": 7863,
      "Ġraising": 7864,
      "Ġdangers": 7865,
      "Ġcleaner": 7866,
      "ĠPen": 7867,
      "Ġstopping": 7868,
      "Ġunco": 7869,
      "ĠGre": 7870,
      "Ġjoked": 7871,
      "Ġfires": 7872,
      "Ġsquaw": 7873,
      "Ġpapa": 7874,
      "boat": 7875,
      "Ġstepping": 7876,
      "Ġhearing": 7877,
      "ĠJennie": 7878,
      "Ġgrows": 7879,
      "meal": 7880,
      "Ġcupcake": 7881,
      "Ġtownspe": 7882,
      "Ġstands": 7883,
      "brina": 7884,
      "Ġnecks": 7885,
      "Ġshops": 7886,
      "Ġalongside": 7887,
      "ails": 7888,
      "balls": 7889,
      "Ġgrandd": 7890,
      "Ġactive": 7891,
      "ĠAlison": 7892,
      "Ġlaying": 7893,
      "Ġnecklaces": 7894,
      "Ġcalmly": 7895,
      "Ġpinching": 7896,
      "Ġprick": 7897,
      "Ġchecking": 7898,
      "Ġhamster": 7899,
      "Ġcovering": 7900,
      "Ġcracker": 7901,
      "Ġcroaked": 7902,
      "Ġtwisting": 7903,
      "Ġcuddly": 7904,
      "Ġgoats": 7905,
      "Ġpreparing": 7906,
      "Ġdiscoveries": 7907,
      "Ġoatmeal": 7908,
      "Ġscattering": 7909,
      "ĠTrust": 7910,
      "Ġscolds": 7911,
      "Ġspeaker": 7912,
      "Ġartwork": 7913,
      "Ġcrystals": 7914,
      "manda": 7915,
      "Ġfreezing": 7916,
      "Ġsewing": 7917,
      "Ġladybird": 7918,
      "Ġobeyed": 7919,
      "Ġencouragement": 7920,
      "Freddy": 7921,
      "ĠBounce": 7922,
      "Ġswayed": 7923,
      "Ġcotton": 7924,
      "Ġannoying": 7925,
      "Great": 7926,
      "Ġthorns": 7927,
      "Ġcommunic": 7928,
      "Ġgerms": 7929,
      "Ġawoke": 7930,
      "Ġnuzzled": 7931,
      "ĠRussel": 7932,
      "Ġmasterpiece": 7933,
      "Ġbouquet": 7934,
      "Ġtheatre": 7935,
      "Ġgonna": 7936,
      "Ġtownspeople": 7937,
      "?!\"": 7938,
      "Feeling": 7939,
      "Kim": 7940,
      "Ma": 7941,
      "Sophia": 7942,
      "Very": 7943,
      "Woof": 7944,
      "dress": 7945,
      "form": 7946,
      "prin": 7947,
      "rily": 7948,
      "rup": 7949,
      "water": 7950,
      "ylves": 7951,
      "ĠOkay": 7952,
      "Ġouch": 7953,
      "Ġtor": 7954,
      "Ġtossed": 7955,
      "Ġbak": 7956,
      "Ġdep": 7957,
      "Ġheight": 7958,
      "ĠTaking": 7959,
      "ĠToto": 7960,
      "iles": 7961,
      "Ġgall": 7962,
      "Ġnood": 7963,
      "Ġnast": 7964,
      "ĠSay": 7965,
      "ĠSince": 7966,
      "ĠSplash": 7967,
      "ĠSasha": 7968,
      "ĠSquirrel": 7969,
      "anish": 7970,
      "lection": 7971,
      "ĠHoot": 7972,
      "ĠHallow": 7973,
      "Ġinj": 7974,
      "Ġbea": 7975,
      "Ġsoaking": 7976,
      "ĠmomÃ¢": 7977,
      "elvet": 7978,
      "Ġforce": 7979,
      "Ġforts": 7980,
      "Ġlies": 7981,
      "ently": 7982,
      "ĠMother": 7983,
      "ĠMine": 7984,
      "ĠMoon": 7985,
      "ĠMarshmallow": 7986,
      "ĠMira": 7987,
      "Ġreun": 7988,
      "rying": 7989,
      "ĠgirlÃ¢": 7990,
      "ĠAng": 7991,
      "ĠAgain": 7992,
      "Ġspat": 7993,
      "Ġspins": 7994,
      "ĠJazz": 7995,
      "asers": 7996,
      "Ġchilly": 7997,
      "Ġtapped": 7998,
      "Ġpeep": 7999,
      "Ġhandy": 8000,
      "Ġstrum": 8001,
      "Ġbubbly": 8002,
      "ortunately": 8003,
      "Ġgardens": 8004,
      "ÅĵWhere": 8005,
      "LetÃ¢": 8006,
      "Ġwrigg": 8007,
      "acle": 8008,
      "Ġfishy": 8009,
      "Ġdisob": 8010,
      "Ġrainy": 8011,
      "ĠRani": 8012,
      "Ġworksh": 8013,
      "Ġbusiness": 8014,
      "Ġsingers": 8015,
      "Ġtasting": 8016,
      "Ġhairdress": 8017,
      "Ġstew": 8018,
      "Ġdripping": 8019,
      "Ġlessons": 8020,
      "Jacky": 8021,
      "Ġmarve": 8022,
      "ĠFlo": 8023,
      "Ġsails": 8024,
      "Ġsailboat": 8025,
      "Ġpetal": 8026,
      "Ġpetting": 8027,
      "ĠGrand": 8028,
      "ixie": 8029,
      "earl": 8030,
      "Ġteachers": 8031,
      "ordinary": 8032,
      "Ġbats": 8033,
      "Ġexpert": 8034,
      "Ġafar": 8035,
      "Ġpresented": 8036,
      "Ġnests": 8037,
      "Ġstreets": 8038,
      "oga": 8039,
      "Ġfootprin": 8040,
      "Ġtroubles": 8041,
      "Ġstirs": 8042,
      "Everything": 8043,
      "Ġstretches": 8044,
      "Ġpicnics": 8045,
      "Ġpleaded": 8046,
      "Ġdisappoint": 8047,
      "Beep": 8048,
      "Ġsqueaked": 8049,
      "Alright": 8050,
      "Ġcrowns": 8051,
      "undred": 8052,
      "Ġstrips": 8053,
      "ĠMargaret": 8054,
      "Ġstreamers": 8055,
      "Ġknocking": 8056,
      "Ġextraordinary": 8057,
      "attered": 8058,
      "Ġkangaroos": 8059,
      "Ġcombed": 8060,
      "Ġmayor": 8061,
      "Ġrepeating": 8062,
      "Ġunpacking": 8063,
      "Ġdisturbing": 8064,
      "Ġstacked": 8065,
      "Ġstomp": 8066,
      "ĠPatrick": 8067,
      "Ġexplains": 8068,
      "Ġpurrs": 8069,
      "Ġstudent": 8070,
      "Ġstudents": 8071,
      "Ġbothered": 8072,
      "ĠIsn": 8073,
      "Ġproper": 8074,
      "Ġfascinating": 8075,
      "ĠAbi": 8076,
      "ĠOlivia": 8077,
      "ĠMeg": 8078,
      "ĠMegan": 8079,
      "ĠSadie": 8080,
      "Ġforgiving": 8081,
      "Ġparticularly": 8082,
      "Ġchoosing": 8083,
      "Ġflashing": 8084,
      "ĠMae": 8085,
      "Sadie": 8086,
      "Ġdamage": 8087,
      "Ġdamaged": 8088,
      "Ġastronauts": 8089,
      "Ġinspired": 8090,
      "Ġsuggestion": 8091,
      "ossom": 8092,
      "Ġnearest": 8093,
      "ĠPuddles": 8094,
      "Ġmunching": 8095,
      "Ġconversation": 8096,
      "Ġunwra": 8097,
      "Ġlocal": 8098,
      "Ġjudges": 8099,
      "ĠBrian": 8100,
      "Ġicicle": 8101,
      "Ġsyrup": 8102,
      "ĠMuffin": 8103,
      "Ġexploration": 8104,
      "Ġthirty": 8105,
      "ĠButtons": 8106,
      "ylvester": 8107,
      "Ġnasty": 8108,
      "ĠHalloween": 8109,
      "Ġworkshop": 8110,
      "Ġhairdresser": 8111,
      ",'": 8112,
      "Boys": 8113,
      "Che": 8114,
      "Jacob": 8115,
      "Mira": 8116,
      "Out": 8117,
      "Put": 8118,
      "Play": 8119,
      "Rosie": 8120,
      "Surpr": 8121,
      "Zoom": 8122,
      "cent": 8123,
      "ears": 8124,
      "jest": 8125,
      "just": 8126,
      "lor": 8127,
      "sm": 8128,
      "vive": 8129,
      "vroom": 8130,
      "Ãĥ": 8131,
      "Ġsou": 8132,
      "Ġsill": 8133,
      "Ġborn": 8134,
      "Ġbitten": 8135,
      "Ġwaking": 8136,
      "Ġmitt": 8137,
      "Ġmate": 8138,
      "ĠTia": 8139,
      "Ġodd": 8140,
      "isions": 8141,
      "ats": 8142,
      "ĠSweet": 8143,
      "aning": 8144,
      "orter": 8145,
      "ĠHar": 8146,
      "ĠHope": 8147,
      "otted": 8148,
      "Ġinches": 8149,
      "ckless": 8150,
      "rier": 8151,
      "ribble": 8152,
      "ĠBoo": 8153,
      "Ġshin": 8154,
      "Ġshorter": 8155,
      "ĠMo": 8156,
      "ĠMabel": 8157,
      "Ġreckless": 8158,
      "rand": 8159,
      "Ġbond": 8160,
      "Ġjars": 8161,
      "Ġexch": 8162,
      "ĠJilly": 8163,
      "ĠJason": 8164,
      "Ġfunn": 8165,
      "Ġclues": 8166,
      "ĠWings": 8167,
      "ĠWise": 8168,
      "agine": 8169,
      "Ġfailed": 8170,
      "Ġchin": 8171,
      "Ġchos": 8172,
      "Ġblown": 8173,
      "usty": 8174,
      "ĠDen": 8175,
      "ĠDory": 8176,
      "ĠDespite": 8177,
      "Ġthanking": 8178,
      "retch": 8179,
      "Ġpeak": 8180,
      "ĠAnnabelle": 8181,
      "ĠJackÃ¢": 8182,
      "ĠJoan": 8183,
      "Ġracer": 8184,
      "ÅĵThe": 8185,
      "ÅĵBut": 8186,
      "ÅĵSee": 8187,
      "Ġstored": 8188,
      "Ġsurprising": 8189,
      "Ġdoorway": 8190,
      "ĠGaby": 8191,
      "Ġjoins": 8192,
      "ĠSpanish": 8193,
      "Ġrains": 8194,
      "Ġforests": 8195,
      "Ġhops": 8196,
      "Ġbrightest": 8197,
      "Ġnights": 8198,
      "Josh": 8199,
      "Ġbits": 8200,
      "ĠDoes": 8201,
      "ĠThatÃ¢": 8202,
      "Ġswimmer": 8203,
      "Ġmovements": 8204,
      "Ġbuilders": 8205,
      "Ġcompan": 8206,
      "Ġvisits": 8207,
      "Ġcreams": 8208,
      "Ġgulp": 8209,
      "Ġchopping": 8210,
      "ĠTodd": 8211,
      "Ġshaped": 8212,
      "Ġpastries": 8213,
      "Ġbattle": 8214,
      "Ġdistract": 8215,
      "Ġpurpose": 8216,
      "Ġpuzzled": 8217,
      "ĠOak": 8218,
      "Ġwildfl": 8219,
      "Ġshrank": 8220,
      "Ġcheerfully": 8221,
      "ĠChuck": 8222,
      "Ġignoring": 8223,
      "Ġtoolbox": 8224,
      "Ġsprays": 8225,
      "Ġself": 8226,
      "Ġdecorating": 8227,
      "Ġsqueaky": 8228,
      "artha": 8229,
      "Ġclassmates": 8230,
      "Meanwhile": 8231,
      "Ġwealth": 8232,
      "keepers": 8233,
      "Ġstamped": 8234,
      "Ġrescuing": 8235,
      "Ġdestroying": 8236,
      "Ġreflection": 8237,
      "Ġpepperoni": 8238,
      "Ġpermitted": 8239,
      "Ġmischie": 8240,
      "Ġtoothbrush": 8241,
      "Ġcurl": 8242,
      "iolet": 8243,
      "Ġlabels": 8244,
      "Ġcells": 8245,
      "Ġvinegar": 8246,
      "Ġtires": 8247,
      "Ġaware": 8248,
      "Ġappreciation": 8249,
      "ĠShar": 8250,
      "Ġcomputers": 8251,
      "Ġluckiest": 8252,
      "Ġmeatballs": 8253,
      "ĠPatch": 8254,
      "Ġpressing": 8255,
      "Ġreversed": 8256,
      "Anne": 8257,
      "Ġsincere": 8258,
      "Quack": 8259,
      "abra": 8260,
      "Ġfloats": 8261,
      "ĠViolet": 8262,
      "Ġsimply": 8263,
      "Ġappearance": 8264,
      "Ġmosquitoes": 8265,
      "ĠMaya": 8266,
      "Ġcaution": 8267,
      "Ġcalf": 8268,
      "Ġflaps": 8269,
      "Ġspilling": 8270,
      "Ġpeeled": 8271,
      "ĠAnother": 8272,
      "Ġpupils": 8273,
      "Ġsilently": 8274,
      "ĠMaia": 8275,
      "ĠTessa": 8276,
      "Ġtucks": 8277,
      "Julie": 8278,
      "Julia": 8279,
      "Which": 8280,
      "Ġsteering": 8281,
      "Ġexpression": 8282,
      "Ġslithered": 8283,
      "Ġexploded": 8284,
      "Ġpanicked": 8285,
      "Suzie": 8286,
      "Ġcawed": 8287,
      "Ġconquered": 8288,
      "Bubbles": 8289,
      "Ġconvinced": 8290,
      "Ġnoodles": 8291,
      "Ġreunited": 8292,
      "Ġpeeped": 8293,
      "Ġchosen": 8294,
      "Ġwildflowers": 8295,
      "Ġmischievous": 8296,
      "'?\"": 8297,
      "Aunt": 8298,
      "Bang": 8299,
      "Curious": 8300,
      "Each": 8301,
      "Ellie": 8302,
      "Get": 8303,
      "Jessie": 8304,
      "Ol": 8305,
      "Riley": 8306,
      "bank": 8307,
      "care": 8308,
      "cie": 8309,
      "crow": 8310,
      "line": 8311,
      "mie": 8312,
      "munk": 8313,
      "oard": 8314,
      "please": 8315,
      "rum": 8316,
      "rupt": 8317,
      "vant": 8318,
      "vince": 8319,
      "what": 8320,
      "ÃĤ": 8321,
      "ĠYum": 8322,
      "Ġtant": 8323,
      "Ġais": 8324,
      "Ġwrench": 8325,
      "Ġtoss": 8326,
      "Ġbamb": 8327,
      "innie": 8328,
      "Ġhood": 8329,
      "Ġhundred": 8330,
      "Ġfare": 8331,
      "ouched": 8332,
      "Ġcages": 8333,
      "Ġcongratul": 8334,
      "erg": 8335,
      "ĠTw": 8336,
      "ĠTara": 8337,
      "aylee": 8338,
      "arrow": 8339,
      "atitude": 8340,
      "Ġnapping": 8341,
      "Ġhab": 8342,
      "ĠSid": 8343,
      "Ġthump": 8344,
      "lets": 8345,
      "ĠHood": 8346,
      "otch": 8347,
      "ĠHello": 8348,
      "Ġele": 8349,
      "ooly": 8350,
      "oops": 8351,
      "Ġroo": 8352,
      "ĠIzzy": 8353,
      "str": 8354,
      "ĠBad": 8355,
      "ĠBoom": 8356,
      "ĠBonnie": 8357,
      "Ġforty": 8358,
      "Ġdolly": 8359,
      "Ġwhipped": 8360,
      "Ġwhales": 8361,
      "Ġwhoosh": 8362,
      "Ġreapp": 8363,
      "ĠAunt": 8364,
      "Ġsped": 8365,
      "ichell": 8366,
      "Ġknots": 8367,
      "ument": 8368,
      "Ġbacks": 8369,
      "Ġclucked": 8370,
      "Ġroamed": 8371,
      "getic": 8372,
      "ĠWelcome": 8373,
      "Ġbirdhouse": 8374,
      "Ġsometime": 8375,
      "Ġgoodby": 8376,
      "Ġflip": 8377,
      "ĠLi": 8378,
      "ĠLaser": 8379,
      "ĠLooking": 8380,
      "ĠEric": 8381,
      "Ġbecomes": 8382,
      "ĠDe": 8383,
      "ista": 8384,
      "Ġaboard": 8385,
      "anted": 8386,
      "Ġhollow": 8387,
      "Ġtraded": 8388,
      "Ġtrotted": 8389,
      "Ġmoat": 8390,
      "Ġlongest": 8391,
      "izmo": 8392,
      "ilda": 8393,
      "Ġflowing": 8394,
      "Yesterday": 8395,
      "ĠCow": 8396,
      "ĠCra": 8397,
      "empt": 8398,
      "Ġdonkey": 8399,
      "Ġgratitude": 8400,
      "Ġcheated": 8401,
      "Ġgliding": 8402,
      "Ġracers": 8403,
      "ÅĵYay": 8404,
      "Whenever": 8405,
      "Ġfinishes": 8406,
      "ĠPan": 8407,
      "ĠPink": 8408,
      "ĠPretty": 8409,
      "ĠPixie": 8410,
      "ĠPearl": 8411,
      "Ġwinding": 8412,
      "Ġconvince": 8413,
      "sol": 8414,
      "Ġmajest": 8415,
      "ĠSpeed": 8416,
      "ĠNice": 8417,
      "Ġdev": 8418,
      "Ġdears": 8419,
      "Ġsurely": 8420,
      "Ġfloppy": 8421,
      "Ġdrown": 8422,
      "Ġsandy": 8423,
      "Ġcraft": 8424,
      "Ġsquished": 8425,
      "Ġparted": 8426,
      "shadow": 8427,
      "boards": 8428,
      "Ġsets": 8429,
      "Ġshoel": 8430,
      "Ġmovement": 8431,
      "ĠKaty": 8432,
      "Ġtighter": 8433,
      "queak": 8434,
      "Ġjoyfully": 8435,
      "uggles": 8436,
      "Ġattempt": 8437,
      "Ġsprout": 8438,
      "Ġcollap": 8439,
      "Ġpackages": 8440,
      "asketball": 8441,
      "Ġdrying": 8442,
      "Dog": 8443,
      "Ġbelongings": 8444,
      "Ġbathing": 8445,
      "ĠOuch": 8446,
      "Ġtunes": 8447,
      "Ġsurvive": 8448,
      "Ġreturning": 8449,
      "Ġstorms": 8450,
      "Ġzookeepers": 8451,
      "ertain": 8452,
      "izza": 8453,
      "Ġprotection": 8454,
      "ĠChick": 8455,
      "ĠAlan": 8456,
      "Everyday": 8457,
      "Ġsalon": 8458,
      "Ġtests": 8459,
      "Ġpriest": 8460,
      "Ġqueens": 8461,
      "Ġscrub": 8462,
      "Ġmeadows": 8463,
      "Ġsqueak": 8464,
      "Ġhonesty": 8465,
      "Ġwiser": 8466,
      "Ġwisely": 8467,
      "illiam": 8468,
      "Ġcheckout": 8469,
      "Ġrats": 8470,
      "Ġcops": 8471,
      "Ġfrowns": 8472,
      "Ġfishes": 8473,
      "Ġapologised": 8474,
      "Ġperformers": 8475,
      "Ġcuddling": 8476,
      "ĠSnuggles": 8477,
      "Ġscratching": 8478,
      "Ġcheaper": 8479,
      "Ġbeetles": 8480,
      "Ġsweat": 8481,
      "Ġsweaty": 8482,
      "Ġdesigns": 8483,
      "ĠPeanut": 8484,
      "Ġenviron": 8485,
      "Ġloading": 8486,
      "Ġspeeding": 8487,
      "Ġmillion": 8488,
      "Ġsupported": 8489,
      "Ġawful": 8490,
      "Ġapplause": 8491,
      "Ġhumans": 8492,
      "ĠSeeing": 8493,
      "Ġpoems": 8494,
      "Chirp": 8495,
      "Ġtubes": 8496,
      "Ġweighs": 8497,
      "Ġscooters": 8498,
      "Ġwiggly": 8499,
      "Ġbothering": 8500,
      "Ġmelody": 8501,
      "Ġlipstick": 8502,
      "ĠCatty": 8503,
      "Ġincreasing": 8504,
      "Robbie": 8505,
      "Ġscurrying": 8506,
      "Ġcontainer": 8507,
      "ĠChris": 8508,
      "ĠCarol": 8509,
      "Ġactivity": 8510,
      "Mikey": 8511,
      "ĠMatty": 8512,
      "Ġopinions": 8513,
      "Ġchooses": 8514,
      "Ġfocus": 8515,
      "asmine": 8516,
      "ĠPoor": 8517,
      "Ġtemptation": 8518,
      "Ġglittering": 8519,
      "Ġembarrassing": 8520,
      "ĠSmokey": 8521,
      "Ġcustomer": 8522,
      "Ġcustomers": 8523,
      "Ġoppos": 8524,
      "annon": 8525,
      "Ġchipmunk": 8526,
      "Ġcharacters": 8527,
      "Ġcowboy": 8528,
      "Ġjuggling": 8529,
      "Ġmanager": 8530,
      "Ġsnorted": 8531,
      "Ġnibbled": 8532,
      "ĠSabrina": 8533,
      "Ġfaint": 8534,
      "Ġgranddaughter": 8535,
      "Ġprickly": 8536,
      "Ġcommunicate": 8537,
      "Ġbakery": 8538,
      "Ġshinier": 8539,
      "Ġcompanion": 8540,
      "Ġtantrum": 8541,
      "Ġbamboo": 8542,
      "Ġfarewell": 8543,
      "ichelle": 8544,
      "Ġgoodbyes": 8545,
      "Ġenvironment": 8546,
      "!'.": 8547,
      "David": 8548,
      "Fro": 8549,
      "Hoppy": 8550,
      "Jon": 8551,
      "June": 8552,
      "Laura": 8553,
      "Mon": 8554,
      "Mabel": 8555,
      "Nice": 8556,
      "Never": 8557,
      "Nutty": 8558,
      "Pretty": 8559,
      "Que": 8560,
      "Red": 8561,
      "Ted": 8562,
      "Two": 8563,
      "Zoe": 8564,
      "bell": 8565,
      "book": 8566,
      "che": 8567,
      "evin": 8568,
      "fly": 8569,
      "five": 8570,
      "gre": 8571,
      "lt": 8572,
      "lied": 8573,
      "mark": 8574,
      "py": 8575,
      "ulp": 8576,
      "val": 8577,
      "Â¦": 8578,
      "ĠOh": 8579,
      "Ġtips": 8580,
      "Ġarom": 8581,
      "Ġsipped": 8582,
      "Ġwoof": 8583,
      "ino": 8584,
      "Ġfade": 8585,
      "ouie": 8586,
      "Ġlim": 8587,
      "Ġlasers": 8588,
      "Ġdip": 8589,
      "erk": 8590,
      "Ġmur": 8591,
      "ĠTy": 8592,
      "arles": 8593,
      "inging": 8594,
      "Ġgap": 8595,
      "ening": 8596,
      "Ġnatur": 8597,
      "Ġsacks": 8598,
      "Ġhaven": 8599,
      "ĠSylvester": 8600,
      "anes": 8601,
      "ances": 8602,
      "orking": 8603,
      "onut": 8604,
      "llas": 8605,
      "ĠHi": 8606,
      "ĠHoney": 8607,
      "ĠHugs": 8608,
      "Ġyum": 8609,
      "aming": 8610,
      "Ġruff": 8611,
      "Ġrays": 8612,
      "Ġstate": 8613,
      "Ġsheets": 8614,
      "ĠBasketball": 8615,
      "elope": 8616,
      "Ġshines": 8617,
      "Ġnoticing": 8618,
      "Ġkilled": 8619,
      "Ġwhimp": 8620,
      "ĠMaisy": 8621,
      "Ġsmashed": 8622,
      "Ġrely": 8623,
      "race": 8624,
      "ecul": 8625,
      "ĠAnny": 8626,
      "ĠAna": 8627,
      "ĠAmanda": 8628,
      "ĠJam": 8629,
      "ĠJelly": 8630,
      "ighting": 8631,
      "Ġclerk": 8632,
      "Ġsculp": 8633,
      "Ġalthough": 8634,
      "ashes": 8635,
      "asured": 8636,
      "âĤ¬,": 8637,
      "âĤ¬Â¦": 8638,
      "Ġotherwise": 8639,
      "ooks": 8640,
      "ĠLots": 8641,
      "Ġchill": 8642,
      "Ġdecisions": 8643,
      "ĠEver": 8644,
      "ĠEddie": 8645,
      "ĠMomo": 8646,
      "Ġtapping": 8647,
      "oured": 8648,
      "ĠFair": 8649,
      "Ġgrain": 8650,
      "ession": 8651,
      "Ġkeen": 8652,
      "Ġpeels": 8653,
      "ively": 8654,
      "Ġtrans": 8655,
      "Ġskies": 8656,
      "Ġwatermel": 8657,
      "Ġwaterfall": 8658,
      "ĠJackie": 8659,
      "Thomas": 8660,
      "Ġgardener": 8661,
      "Ġglared": 8662,
      "Ġglisten": 8663,
      "Ġglimmering": 8664,
      "Ġdollar": 8665,
      "Ġcleans": 8666,
      "Ġrocky": 8667,
      "ĠPain": 8668,
      "Ġforeshadow": 8669,
      "tures": 8670,
      "Ġwrit": 8671,
      "ĠGoose": 8672,
      "ĠSpring": 8673,
      "ĠNancy": 8674,
      "Ġstores": 8675,
      "Ġleaking": 8676,
      "Ġgladly": 8677,
      "Ġcrouched": 8678,
      "Ġtricycle": 8679,
      "ship": 8680,
      "Ġduckling": 8681,
      "Ġbowing": 8682,
      "Ġsnowy": 8683,
      "Ġhunger": 8684,
      "ĠKathy": 8685,
      "zzz": 8686,
      "Ġguide": 8687,
      "angle": 8688,
      "Ġprod": 8689,
      "Ġsprang": 8690,
      "ounce": 8691,
      "Ġinstantly": 8692,
      "ordan": 8693,
      "Ġpresence": 8694,
      "ĠRebec": 8695,
      "Ġsupplied": 8696,
      "ĠAlicia": 8697,
      "Ġcooed": 8698,
      "Ġanswering": 8699,
      "Ġminds": 8700,
      "ÅĵIf": 8701,
      "Ġgasps": 8702,
      "ĠBehind": 8703,
      "ĠOnly": 8704,
      "ĠLeah": 8705,
      "Ġtickling": 8706,
      "Ġpays": 8707,
      "Ġtentacles": 8708,
      "Ġorders": 8709,
      "Ġscares": 8710,
      "Jenna": 8711,
      "Ġtwists": 8712,
      "Ġfreely": 8713,
      "Ġlowered": 8714,
      "Ġposts": 8715,
      "Ġguarding": 8716,
      "ĠClown": 8717,
      "Ġwindowsill": 8718,
      "Ġbracelets": 8719,
      "ĠPeep": 8720,
      "Ġheroes": 8721,
      "Ġengines": 8722,
      "Ġquestioned": 8723,
      "Ġimproving": 8724,
      "Ġumbrellas": 8725,
      "ĠDavey": 8726,
      "udged": 8727,
      "Ġrepairman": 8728,
      "Ġenergetic": 8729,
      "Ġvolcanoes": 8730,
      "Ġkayaking": 8731,
      "Ġslipping": 8732,
      "Ġcomets": 8733,
      "Ġburnt": 8734,
      "Ġfleas": 8735,
      "Ġclubs": 8736,
      "Ġtriangles": 8737,
      "Ġshovels": 8738,
      "Ġvehicles": 8739,
      "ĠWhoever": 8740,
      "ĠVelvet": 8741,
      "Ġtongues": 8742,
      "Ġpedaling": 8743,
      "Ġrows": 8744,
      "Ġsuitcases": 8745,
      "Ġbrushing": 8746,
      "Ġdaily": 8747,
      "ĠCarla": 8748,
      "Ġwinks": 8749,
      "iko": 8750,
      "Ġscrubbing": 8751,
      "Ġheavily": 8752,
      "Ġexpecting": 8753,
      "Ġswaying": 8754,
      "Ġtypes": 8755,
      "Ġrobbers": 8756,
      "Ġhealthier": 8757,
      "Someone": 8758,
      "Ġpopsicle": 8759,
      "Ġcoconut": 8760,
      "Abigail": 8761,
      "Ġdetails": 8762,
      "Ġdodged": 8763,
      "Ġpounds": 8764,
      "ĠJeff": 8765,
      "Ġnibble": 8766,
      "ĠCleaning": 8767,
      "ĠDotty": 8768,
      "Ġconflict": 8769,
      "Ġsoothing": 8770,
      "Surprise": 8771,
      "Ġmatey": 8772,
      "Ġcongratulated": 8773,
      "Ġopposite": 8774,
      "Queen": 8775,
      "Ġaroma": 8776,
      "Ġnatural": 8777,
      "Ġwatermelon": 8778,
      "Ġglistening": 8779,
      "ĠRebecca": 8780,
      "AA": 8781,
      "Aw": 8782,
      "Hmm": 8783,
      "Joy": 8784,
      "Kids": 8785,
      "Lucky": 8786,
      "Luke": 8787,
      "Mother": 8788,
      "Open": 8789,
      "Penny": 8790,
      "Silly": 8791,
      "Willie": 8792,
      "cad": 8793,
      "for": 8794,
      "haps": 8795,
      "ieter": 8796,
      "ka": 8797,
      "oor": 8798,
      "off": 8799,
      "rite": 8800,
      "rough": 8801,
      "rons": 8802,
      "site": 8803,
      "tock": 8804,
      "why": 8805,
      "Ġtugging": 8806,
      "Ġsigning": 8807,
      "nded": 8808,
      "Ġbaker": 8809,
      "rect": 8810,
      "Ġlump": 8811,
      "Ġdumb": 8812,
      "Ġdips": 8813,
      "Ġmaker": 8814,
      "Ġpecul": 8815,
      "Ġwashes": 8816,
      "ĠTree": 8817,
      "ĠTiki": 8818,
      "ĠTabby": 8819,
      "ilities": 8820,
      "Ġgaz": 8821,
      "Ġgrip": 8822,
      "enzie": 8823,
      "ĠSl": 8824,
      "immered": 8825,
      "ĠHold": 8826,
      "otor": 8827,
      "cker": 8828,
      "Ġyel": 8829,
      "Ġyelp": 8830,
      "ooo": 8831,
      "igger": 8832,
      "Ġriddle": 8833,
      "Ġbegs": 8834,
      "Ġstur": 8835,
      "ppa": 8836,
      "adia": 8837,
      "ĠweÃ¢": 8838,
      "stantly": 8839,
      "ĠBang": 8840,
      "elie": 8841,
      "enter": 8842,
      "Ġnecess": 8843,
      "alia": 8844,
      "ĠMag": 8845,
      "ĠMinnie": 8846,
      "Ġrewards": 8847,
      "Ġashes": 8848,
      "ackenzie": 8849,
      "Ġspare": 8850,
      "Ġknives": 8851,
      "Ġallerg": 8852,
      "Ġroast": 8853,
      "ĠWorm": 8854,
      "Ġtreasured": 8855,
      "Ġfawn": 8856,
      "Ġfacing": 8857,
      "ĠwhatÃ¢": 8858,
      "Ġcode": 8859,
      "ĠLacy": 8860,
      "Ġblushed": 8861,
      "ĠElle": 8862,
      "ĠDeal": 8863,
      "ĠFake": 8864,
      "ĠFind": 8865,
      "Ġpokes": 8866,
      "Ġpopping": 8867,
      "Ġlookout": 8868,
      "aptain": 8869,
      "Ġpeas": 8870,
      "Ġpecks": 8871,
      "Ġtrigger": 8872,
      "Ġbud": 8873,
      "Ġbund": 8874,
      "Ġbubbling": 8875,
      "othy": 8876,
      "Ġquieter": 8877,
      "Ġoffic": 8878,
      "ortun": 8879,
      "ĠJose": 8880,
      "ĠJody": 8881,
      "ĠJoJo": 8882,
      "ĠJosie": 8883,
      "Ġchecks": 8884,
      "Ġbrains": 8885,
      "Ġunderwater": 8886,
      "Ġwoken": 8887,
      "ÅĵMaybe": 8888,
      "ÅĵGood": 8889,
      "astated": 8890,
      "Ġshares": 8891,
      "Ġdoorbell": 8892,
      "Ġcons": 8893,
      "Ġconcent": 8894,
      "Ġunfortunately": 8895,
      "ĠGizmo": 8896,
      "Ġclosing": 8897,
      "ĠRight": 8898,
      "ĠRock": 8899,
      "ĠRich": 8900,
      "ĠRory": 8901,
      "ĠRibbit": 8902,
      "ĠRiko": 8903,
      "Ġamused": 8904,
      "Ġarmy": 8905,
      "Ġdifferently": 8906,
      "ĠDove": 8907,
      "Ġcracks": 8908,
      "Ġcris": 8909,
      "Ġcooled": 8910,
      "Ġbaa": 8911,
      "Ġwoodpe": 8912,
      "Ġducklings": 8913,
      "ulf": 8914,
      "Ġcupboards": 8915,
      "Ġlanding": 8916,
      "Ġproved": 8917,
      "Ġriverbank": 8918,
      "Ġlunchtime": 8919,
      "Ġcafe": 8920,
      "Ġbounces": 8921,
      "Ġimaginary": 8922,
      "Ġgrandson": 8923,
      "ĠOff": 8924,
      "Ġpractised": 8925,
      "Ġcorrect": 8926,
      "ĠReady": 8927,
      "Ġaprons": 8928,
      "Ġserving": 8929,
      "Ġtrusts": 8930,
      "Ġcooperate": 8931,
      "Ġnets": 8932,
      "Ġships": 8933,
      "Ġgroups": 8934,
      "Ġwhisk": 8935,
      "Ġbreaths": 8936,
      "Ġdecoration": 8937,
      "flower": 8938,
      "ĠStella": 8939,
      "ĠStretch": 8940,
      "Ġgenerosity": 8941,
      "Ġincredibly": 8942,
      "Ġmiracle": 8943,
      "Ġpiled": 8944,
      "Ġrelaxing": 8945,
      "Ġmagnif": 8946,
      "Ġharmony": 8947,
      "Ġterrified": 8948,
      "Ġelders": 8949,
      "Ġsqueezes": 8950,
      "Ġleans": 8951,
      "Ġstriking": 8952,
      "ĠMarie": 8953,
      "Ġseriously": 8954,
      "Ġcharged": 8955,
      "Ġstatues": 8956,
      "Ġsneaking": 8957,
      "Ġvibr": 8958,
      "Ġargument": 8959,
      "Ġmember": 8960,
      "Ġsurfer": 8961,
      "Ġcrows": 8962,
      "Ġshorts": 8963,
      "teen": 8964,
      "ĠRollie": 8965,
      "Ġexperiment": 8966,
      "Ġburger": 8967,
      "Ġreversing": 8968,
      "Ġpurring": 8969,
      "ĠisnÃ¢": 8970,
      "Ġbarrels": 8971,
      "Ġoffering": 8972,
      "Ġmagazines": 8973,
      "ĠCozy": 8974,
      "ĠIsland": 8975,
      "ĠIsabel": 8976,
      "Ġlectures": 8977,
      "Ġnightmares": 8978,
      "ĠPiper": 8979,
      "Years": 8980,
      "Ġseagulls": 8981,
      "Ġfetched": 8982,
      "Ġannounced": 8983,
      "ÅĵWeÃ¢": 8984,
      "Ġallowing": 8985,
      "Ġclicked": 8986,
      "Ġrevealing": 8987,
      ".''": 8988,
      "Ġwounds": 8989,
      "Ġcousins": 8990,
      "ĠHappyland": 8991,
      "Ġflashes": 8992,
      "Ġhonks": 8993,
      "Ġcommon": 8994,
      "ĠJonas": 8995,
      "Ġtempted": 8996,
      "Ġbehaviour": 8997,
      "Ġleapt": 8998,
      "ĠSparky": 8999,
      "Ġopportun": 9000,
      "lectric": 9001,
      "Ġcocoon": 9002,
      "ĠExcited": 9003,
      "Ġpositive": 9004,
      "Ġ20": 9005,
      "Ġbruises": 9006,
      "Ġrinsed": 9007,
      "ĠAshlee": 9008,
      "Ġcoughed": 9009,
      "Ġglittered": 9010,
      "ĠPlaying": 9011,
      "Ġdefeat": 9012,
      "Ġinterrupt": 9013,
      "Ġroutine": 9014,
      "Ġblonde": 9015,
      "ĠGregg": 9016,
      "Ġtorto": 9017,
      "Ġgallop": 9018,
      "Ġdisappointment": 9019,
      "loria": 9020,
      "Ġaisle": 9021,
      "Ġrooster": 9022,
      "Ġmajestic": 9023,
      "Ġdevastated": 9024,
      "Ġcollapsed": 9025,
      "Ġwriter": 9026,
      "cadabra": 9027,
      "Ġpeculiar": 9028,
      "Ġsturdy": 9029,
      "Ġconcentr": 9030,
      "Ġwoodpecker": 9031,
      "',": 9032,
      "Achoo": 9033,
      "Arrr": 9034,
      "Cat": 9035,
      "Deal": 9036,
      "Ginger": 9037,
      "Hold": 9038,
      "Im": 9039,
      "Lizzy": 9040,
      "Mine": 9041,
      "Nick": 9042,
      "Paula": 9043,
      "Sl": 9044,
      "Sn": 9045,
      "Sunny": 9046,
      "Vroom": 9047,
      "Zee": 9048,
      "aly": 9049,
      "aved": 9050,
      "bly": 9051,
      "cou": 9052,
      "cup": 9053,
      "ders": 9054,
      "fia": 9055,
      "gae": 9056,
      "look": 9057,
      "ok": 9058,
      "opped": 9059,
      "riting": 9060,
      "sa": 9061,
      "saw": 9062,
      "tles": 9063,
      "taker": 9064,
      "vate": 9065,
      "yla": 9066,
      "ĠOf": 9067,
      "Ġicky": 9068,
      "ĠQueen": 9069,
      "hew": 9070,
      "Ġtill": 9071,
      "Ġtumm": 9072,
      "Ġactor": 9073,
      "Ġsom": 9074,
      "Ġtopp": 9075,
      "Ġbom": 9076,
      "Ġburp": 9077,
      "Ġbuddy": 9078,
      "inter": 9079,
      "Ġwaded": 9080,
      "Ġfulf": 9081,
      "Ġlur": 9082,
      "Ġlens": 9083,
      "Ġcuc": 9084,
      "Ġcertain": 9085,
      "ering": 9086,
      "Ġpuck": 9087,
      "ĠTime": 9088,
      "ili": 9089,
      "ĠSk": 9090,
      "ĠSatur": 9091,
      "onished": 9092,
      "lest": 9093,
      "ĠHank": 9094,
      "etch": 9095,
      "ĠHelen": 9096,
      "owing": 9097,
      "utely": 9098,
      "Ġelectric": 9099,
      "igaret": 9100,
      "Ġrack": 9101,
      "Ġrumbling": 9102,
      "cel": 9103,
      "cell": 9104,
      "Ġplow": 9105,
      "Ġplopped": 9106,
      "Ġhisses": 9107,
      "ĠBust": 9108,
      "ĠBigg": 9109,
      "eliness": 9110,
      "herry": 9111,
      "Ġshattered": 9112,
      "ended": 9113,
      "seed": 9114,
      "Ġkittens": 9115,
      "Ġwhizz": 9116,
      "ĠMuffy": 9117,
      "ĠMartha": 9118,
      "Ġrejo": 9119,
      "ragon": 9120,
      "Ġgogg": 9121,
      "Ġatop": 9122,
      "urball": 9123,
      "ĠAc": 9124,
      "Ġspies": 9125,
      "Ġspades": 9126,
      "artment": 9127,
      "ico": 9128,
      "hings": 9129,
      "arefully": 9130,
      "Ġclut": 9131,
      "ĠTomorrow": 9132,
      "Ġlever": 9133,
      "ĠWhee": 9134,
      "ĠWooly": 9135,
      "Ġbirdseed": 9136,
      "ongo": 9137,
      "Ġfail": 9138,
      "ownie": 9139,
      "Ġparking": 9140,
      "ellow": 9141,
      "Ġfluff": 9142,
      "ĠLime": 9143,
      "ĠLena": 9144,
      "ĠEating": 9145,
      "Ġcaretaker": 9146,
      "ĠDash": 9147,
      "Ġability": 9148,
      "ĠFribble": 9149,
      "ĠFighting": 9150,
      "ersaul": 9151,
      "ĠMaxi": 9152,
      "Ġoldest": 9153,
      "Ġtrading": 9154,
      "umpkin": 9155,
      "Ġench": 9156,
      "Ġoverhead": 9157,
      "Ġoverwhe": 9158,
      "ĠCars": 9159,
      "ĠCount": 9160,
      "Three": 9161,
      "ÅĵPlease": 9162,
      "ÅĵWho": 9163,
      "ÅĵHow": 9164,
      "ÅĵMummy": 9165,
      "ÅĵThanks": 9166,
      "ĠPromise": 9167,
      "ĠPizza": 9168,
      "ĠPico": 9169,
      "ĠPumpkin": 9170,
      "Ġunz": 9171,
      "Ġunison": 9172,
      "ĠGirl": 9173,
      "ĠGinger": 9174,
      "Ġlistener": 9175,
      "Ġdiscou": 9176,
      "ĠSpud": 9177,
      "ĠRavi": 9178,
      "ĠRusty": 9179,
      "ĠNat": 9180,
      "ĠNever": 9181,
      "ĠNathan": 9182,
      "Ġmonth": 9183,
      "Ġbuyer": 9184,
      "ĠAfterwards": 9185,
      "ĠKaylee": 9186,
      "ĠKevin": 9187,
      "avin": 9188,
      "ĠWhatÃ¢": 9189,
      "Ġcompete": 9190,
      "Ġpolar": 9191,
      "Ġguards": 9192,
      "Ġguided": 9193,
      "iety": 9194,
      "Ġattitude": 9195,
      "ippers": 9196,
      "Ġbuckled": 9197,
[...]
